/**
  ******************************************************************************
  * @file    network_data.c
  * @author  AST Embedded Analytics Research Platform
  * @date    2026-05-30T16:22:47+0200
  * @brief   AI Tool Automatic Code Generator for Embedded NN computing
  ******************************************************************************
  * Copyright (c) 2026 STMicroelectronics.
  * All rights reserved.
  *
  * This software is licensed under terms that can be found in the LICENSE file
  * in the root directory of this software component.
  * If no LICENSE file comes with this software, it is provided AS-IS.
  ******************************************************************************
  */

#include "network_data.h"
STAI_ALIGNED(8)
const uint64_t g_network_weights_array[35421] = {
  0x161a122fd43d4291U, 0x5aec35d9344e81caU, 0xda23f60531c59afbU, 0x3133e0ddebcff43aU,
  0xed8f81c6502c3520U, 0xd3becf1a2218eff7U, 0xd8d04b3a28160500U, 0x8b523d3ed9ccbfbcU,
  0x79487f0df012a297U, 0x531161334c3e3f8U, 0x200ceee541220e48U, 0x1ddf0b762337e8e0U,
  0xfef549362eada9fbU, 0x7f58484f81b8d001U, 0xa050b512f5e7350U, 0xc4bf0d00fe0e1e0bU,
  0x1b1c1b28f8b95a5U, 0xf325f0bf4804c32eU, 0x5d10a04d41ba352eU, 0xd811d2baa2932bfU,
  0xa27dbd00812d01bU, 0x6581e23ed90b14deU, 0x88eb42c6383d9d46U, 0xbbd5950825b61c49U,
  0x10fad9c4baa18581U, 0x6bf1ff0df4f1ee0dU, 0x475a634b4e733b1fU, 0xc42eff2e7fdfe1eaU,
  0xd0426f4fe3ceccbeU, 0x4e5d03f7eabde2d3U, 0xef81c0d7bc01f9b2U, 0xd0ea27d6e815bebaU,
  0xfb3605f641e6e750U, 0xdac308582837670aU, 0x11dcf0c6473f7fdaU, 0x1f4f4fefd09010bU,
  0x2b4bc1b5941f2a33U, 0xf00be8e00a00f41eU, 0xcdd48103f1e217f9U, 0x2ee05ec0709f9f1U,
  0x10273e3afbfd05f5U, 0x8393ce8c9e50e21U, 0x3739bd8192e6f2f0U, 0x35f1d8d904fc1628U,
  0x152d4ebed3101b35U, 0x1618a281d30c0e18U, 0xf8dcb4af311af11cU, 0x1aa64417ea021c1bU,
  0x815522ddfefdc13fU, 0x2014fcfeffa95129U, 0x1cce12fceb230ed9U, 0x9e4b33dfea3fb610U,
  0x2550d1dd4c81260dU, 0x36e7e635ba0a07d1U, 0x39c2000049f4U, 0x34f8fffff2cfU,
  0x2db2ffffd402U, 0x2c1400004e52U, 0x2238fffffc9cU, 0x27faffffe8baU,
  0x215c00003994U, 0x1f88000002ecU, 0xf504ef1301e5ef13U, 0xf25f8e00fdd4517U,
  0xedef470300f8153bU, 0x441918ee3dd83b3fU, 0xf7032b0fbdfc2225U, 0xd98cf51feaeb181cU,
  0x411f4d0f107dfd5U, 0xf52c0f0e05b0cb2dU, 0xf9f40ca104f5f8eeU, 0x527e45185e81d14cU,
  0xf9ec1bd2f6ed3af9U, 0xd24213102bac42fU, 0x1521e11ce51ee70cU, 0xb89e07f8b0e7d304U,
  0x920f8fce918d6feU, 0xe4e11f01f5bcc407U, 0xa14f0f6fc13f604U, 0x707190ed6dac513U,
  0xbc1611ffea12f308U, 0x18fcfe05cc0a1af2U, 0x8f28b3e8f713083eU, 0x5cb01f9bedbfdeaU,
  0xbd28fcd907e52032U, 0xefe507e9c1d50803U, 0xd9f924da150d0115U, 0xfa30fd0bea02f4fcU,
  0xa204b19b200f2b04U, 0xf9e52104e5c391d0U, 0xa60cafa724f03b02U, 0xedbc0de8e0c9bdd0U,
  0xfdda43d01a01fcf8U, 0xfc5b14f8240e061fU, 0xf2cc25813a0f3bedU, 0xfb373c0c12f1af17U,
  0xe6f2fc9b2d033efeU, 0xae528fc10f3c7e9U, 0x696e01a3f1ef0b9U, 0xfb53f4e1e505e003U,
  0x1f805f80cfc0bdfU, 0x101600fc04fd0600U, 0xf85f0eecc4f10a3fU, 0xf1890b142af016f1U,
  0x681f7114a1ef8a6U, 0xf95cf5deda02f604U, 0x81a15f204f50deaU, 0xcf5fc00fdf60df8U,
  0xfd5912f1c5f00642U, 0xee97061123ec14e8U, 0xfdd5e5ff1cffffd8U, 0x441ffe8deff04f9U,
  0x21e00f9e7fa0d0cU, 0x1fc040201f406f4U, 0xfd1013fcdaf60819U, 0xf2d1000b06f4fbf6U,
  0xf10bee2b1431e8f0U, 0xcf008e8edfe1c05U, 0xf815f5411d34edfcU, 0x4e706efeb1b2532U,
  0x90dff45f90af402U, 0xfbf109fdff19011dU, 0xc80ae921fe13e6f2U, 0xf10c06f6032609U,
  0x81130224f2efe801U, 0xd0200f8feec02f8U, 0xb80d0031e9e4f505U, 0xd070900100aecfaU,
  0xdceafc050de00e08U, 0xf315071d22fcfc06U, 0x93e214fd06bd0903U, 0xff211f1b22ebd7ccU,
  0xb1e80c1802e112f4U, 0xa1a17183ffbf2d0U, 0x1d02b9ed0ff40508U, 0x44f104ff2dfee30bU,
  0x2303bbde0a0a151cU, 0x1eb326204103131dU, 0x2200dee3020a0b0eU, 0xe4811b2445113511U,
  0x21ffeedf1803f3f1U, 0x312207f10cf4f222U, 0x2605f3cc0a07f602U, 0x24d6130e1dfc1431U,
  0x1cfd15d2000bfd00U, 0xc9a00c010d10451fU, 0x10fd01ee160df6feU, 0x93a04f8e8f5f411U,
  0x11012ae00007eafbU, 0xff1f0a0efef20320U, 0x1f23aebfafff2f7U, 0xb7f80bf7f6042a09U,
  0xbefcf30b00fb1906U, 0xf7fa06f8000d1cf7U, 0x8103f61a12f61706U, 0x2fbff0b040b0304U,
  0xc50bfb1d02e40305U, 0xfcf7110e0a0014f8U, 0x2ef1f6d207f61503U, 0x1f3ec0e09eeebeaU,
  0x37f0f3a20ffa1205U, 0xfff1ea0e14ccfdd7U, 0x1df8f6ddf9060609U, 0xfaf3f30611e7f3f7U,
  0x60711fcfe12ecf5U, 0x311fef5f007f603U, 0x2080df50510e2f4U, 0x914faf7edfc0405U,
  0x7090dfbfb0be0faU, 0xefdf6eb010304U, 0xb0f01480efce6fdU, 0xfa09f1dcd6f3f207U,
  0x19110c6718fbedf6U, 0x40cdde6e3ead80aU, 0x1e1013380f0de1f7U, 0xfefeebe8dcf8e604U,
  0xc109e340ebed3004U, 0xfbf512070a122df3U, 0x8112e76c02e03c07U, 0xf5f8271e110b0be5U,
  0xd20eee34f6d72314U, 0xf7f41b1a110225ecU, 0x38d60ebffdfd16fdU, 0x40acb0e1702fcd1U,
  0x28e012980cf1fa08U, 0x1207b21311cdf3bfU, 0x26e105d2f3ee0b04U, 0xfcfee81b10efe4d4U,
  0x522f410f5030819U, 0xdf820c04090de3f7U, 0x1e00110105130cU, 0xcb81f914231a0bfdU,
  0xff16ee0c071af61aU, 0xe3c21e1d1514150fU, 0x1015db1afe130ffaU, 0xf897180bff2feefcU,
  0xf811ef12f90f0be9U, 0xe3a4fa0d303224f0U, 0x50de506e50df1f8U, 0xeed90b031a1a09fdU,
  0x72ec81b032deafdU, 0x2ef2fef1ff2c0d05U, 0x12eea0aef06feeaU, 0x14fbebf5101f0efdU,
  0x613ebfbe4fbf1f5U, 0x1834f7ee120af204U, 0xf51309e5d1125317U, 0xe7e6fdbb1fdde286U,
  0xdc07e911bd6646ffU, 0x160ee99517f6f1ebU, 0xe6db0a23eb7b0bffU, 0x320edfde1181260U,
  0x251ffddcefe95f0bU, 0xf2d12bd11dce9786U, 0xee0dd510bd535103U, 0xf400f7812be1dec7U,
  0xc9d21826c96d11f2U, 0xfd30e0c9dffd3246U, 0x1f2827ee16071b01U, 0xaea3af90bf0d4edU,
  0x1009e705de293a08U, 0x100019b51bebecdeU, 0xcfc8f005ba1533fdU, 0x23f1dfcfe629f9U,
  0xefefc0ee9d31b0cU, 0x4fbe9f802b2f6e4U, 0x6f30716f2da22f5U, 0xfa03c4f6eca705ebU,
  0x6021f0a00e00ffcU, 0xfe00f40ef6c31005U, 0x14fbec0c05db1816U, 0x7f80303fd92f5dfU,
  0x5effc13fcf513f1U, 0xfc06ebe3e28107caU, 0xfd0b100302fa0ffaU, 0xfffc0107f1b223fcU,
  0xf05f0fd0ef00308U, 0xfcf510070ec801e9U, 0xb00f7fe00fa0df5U, 0x60115f5f4b805c9U,
  0xfc0708f6fefa0702U, 0xffff0cf9fad81eedU, 0x60d0fdef7e0e236U, 0xd5f72c1024f4f927U,
  0xf710ea08d7090681U, 0x3cf8f2f4dc09ea26U, 0xfef9edfa23f90549U, 0xf705f8ee12edecf9U,
  0xafc18d801ecd03cU, 0xd70250e72efb0e35U, 0xf603e704d4001485U, 0x3dfe18f4c9fbeb3cU,
  0xdf3f3f92bf3fd48U, 0xdb130ae9fbe9e310U, 0x1f016ede8fbe917U, 0xde0535e327fd0efcU,
  0xfaf7e9fccbf40bb0U, 0x3ef01300e4f1ee13U, 0x801eafe13fafa2aU, 0xf8f910f7f1f9f613U,
  0xe00906fe05fde80bU, 0xff01e01adaf51829U, 0x3205f1db19f4df18U, 0xee9481943f8c9f0U,
  0xfa00fff8c5fc20efU, 0xef02ebd8d2eced26U, 0xd30500fe13f9c80dU, 0x414ce1feeea1f32U,
  0x37f9ecc04600d30aU, 0xf4e07f044dfcc5eeU, 0xef0104f3be0f1ee6U, 0xf40fd7cacae7eb32U,
  0xecfffd021cf7e70aU, 0x414e80cf9f11311U, 0x19f7fee22b12e407U, 0xf5ef4ce75904ecf8U,
  0xf0fdf8f5d40129f8U, 0xae6e8d4f30813U, 0x1335d306170a0c40U, 0xed0bf340f7d5f3U,
  0xf3b23711e305efd0U, 0xe616fcfaa9fdf913U, 0xfd1efa00f2f40dd5U, 0x14e3041319f4fef9U,
  0x2143bbfa261e0874U, 0xfcf10cd856f8cfeeU, 0xde815e11e107e9beU, 0xda3beafb8af60f22U,
  0xf52cfef3f7f608c8U, 0x23d9011424f021f1U, 0x132fdf011d120147U, 0x12020ee653feeff7U,
  0xdcb21500ee050be3U, 0xe624f70b9cf12805U, 0xf90deef6f506feedU, 0xdfdfc040bf214eaU,
  0xf933f9e71ada1a2aU, 0x36dce006f7e814efU, 0xe8f8330127eced73U, 0xbdf9f20bf7fd16d7U,
  0xffba300bf819dcd8U, 0xe4231400fb10ec0cU, 0xfaee20e21bdf0554U, 0xbb0501fff2fa26f2U,
  0xbb12407051504eaU, 0x13350e00fa24f7fcU, 0x61fd406e00c1a81U, 0x4ef3f400161400feU,
  0xffea19021519f6d3U, 0xfa070bea050d0817U, 0x1b1bb0f803071ba3U, 0x2c1000e02123e72aU,
  0x16a90f209f01954U, 0x1beebe815fe0afbU, 0xe3fee710d50646f3U, 0xdf0013a815fc13b2U,
  0xf31016f5d3ecf302U, 0x2d0e9c06a4f10434U, 0x2dfdfae322e1f0fcU, 0xe0ed25270ff9d7d7U,
  0x4cfae6d326f1060bU, 0xf9d44641342ad4daU, 0x9309e715b44b33f9U, 0xec1dee8500f32cf3U,
  0xb0e14d116e6e011U, 0x28f5c011d7edf70aU, 0x1c0c28e605f2b90cU, 0x1e0f9339ce05ef5fU,
  0x1dede9e23fcfc001U, 0xf0d8675354f4fc81U, 0xc708e310d4371dfdU, 0xfb1304cafc04210fU,
  0xc070be2f5080b0cU, 0xe906f8f6bdfaf502U, 0xc11107093e1cc805U, 0x1415b446bef53a2eU,
  0xf6f40a1b46c8a504U, 0x6061c523af9d3c4U, 0xcc060eeb1608c8f1U, 0xf40dc725a6ec3916U,
  0xb708f5123e818102U, 0xefad458fae922fbU, 0x33e1f1174c2ce8feU, 0xe3ec485e54009dc4U,
  0xcffafcf937e0dcf8U, 0xc0fef49c2f03815U, 0xfbf5e42a4903c407U, 0x4f7284c35f705ddU,
  0x4c020ef63136fdfdU, 0xf10530f85409a1fcU, 0x9cdfd000022efceU, 0xf60cf6111a06c204U,
  0xf3c4c415dd160781U, 0x11de0fc12d2bfc0U, 0xf4d9df07f22218c8U, 0xe27e1f122e70203U,
  0x100d2b0af9fde621U, 0xf8f209181e09f824U, 0xf296f30f1e0e188eU, 0xcc0bf12a1bbfb4bfU,
  0xdad1dc070512029cU, 0xff20031320e82dd9U, 0xf83e10f5eddc022bU, 0x3918000c3ff63a02U,
  0x8f6fbf9160526dfU, 0x1738131c38edf6fbU, 0xf2faf20a160bf9d4U, 0x1c3709123e0124e5U,
  0xfb2fe9f6f6e60b1eU, 0x13c2fb0e0ef809f1U, 0x35bd7f3eee01043U, 0x1ba0030c16f501dcU,
  0x233ecf7fbf00c37U, 0xad1ff0510f3f2efU, 0xd03fbfffefef2U, 0xfe0e04fd15f9f200U,
  0x6f7fafd06fbfaU, 0xf809fffc1a01ef00U, 0xfafcfafa0703f801U, 0xf21400fc0b00fd03U,
  0xffc51603120bf2ecU, 0xe53900efd901f30aU, 0xfa81170d1519edb7U, 0xde48fdebcd0bf015U,
  0xf2c111fd0702f4caU, 0xf524fdf5db060a0bU, 0xfc0305b4feded9f7U, 0xafaec3d12f41907U,
  0x23f3f7a3fc8fe7f5U, 0xf0f5f63007d6f2cbU, 0x26ea03e20eb92203U, 0xe3edf917fed1e7ecU,
  0xfd0e0ddf191cc90aU, 0xb05f221fd021a32U, 0x12f8fc811dbaaaefU, 0xb09f832fbe103eeU,
  0x1df6f58629d1e706U, 0x8f40717f4cdf7d7U, 0xf714060efb36e20eU, 0x3100f02f4091532U,
  0xe0203f11506ca01U, 0x40fff14fb01ff36U, 0xa0908d62511d808U, 0x403140704e8fbe2U,
  0x90a10fefbeafefdU, 0x1dec0726f7e6fafaU, 0x103fc05e40b0726U, 0xda0e07cf02eeee18U,
  0xfdfafe0408ffeff0U, 0x5f8160d02090b0dU, 0x30216e904cef7e5U, 0x25eaf732e4ee1a0dU,
  0xf903f300cc181426U, 0xc2240f8105dee414U, 0x5ed00f51b0ae6dfU, 0xefc1413140b0311U,
  0xf50811ef0ce8fce7U, 0x19f20618f1fc250dU, 0xf806f1fce9092524U, 0xd61713c40aecea0dU,
  0x2ec09fa1b0af0edU, 0x9fb02100b00ff09U, 0xfd2ffd12fefcfbU, 0xfd060205fc020205U,
  0x203e7061908f901U, 0x2519f8f50008e7ffU, 0x6ffe8fc0aff01fcU, 0x1afffbf40906eff8U,
  0x115e9080d12ec08U, 0x180ef502f00dfcfeU, 0x61681101917f322U, 0x3a1cf7f4040fdffaU,
  0x104c7010d08fc21U, 0xff7f8f1080bfaf6U, 0xfc19d5000711e90dU, 0x1e20fbf8e409f902U,
  0xfc12a9070010f316U, 0x40e01f6f408f402U, 0x3f9e800fb07fb0cU, 0xf6fdfffeff0bff07U,
  0x4dd5e5d5f00c4a0bU, 0xe7eb1d0e68f6ded6U, 0x48e9f9cbd2443fffU, 0xe8fafbfa4300cb0bU,
  0x13fc10ddd51112ffU, 0xf5f9dcf917f4f40aU, 0x46f4f381f24a1ceeU, 0xe7fb1dd43309defdU,
  0x260e0fb6e75c05f5U, 0x50acee4effcfb21U, 0xf00d11eada1ade05U, 0x50ce3facfe91504U,
  0x191403dff632e2f3U, 0xc01d30700ee1fU, 0xfd2611e8e01bc915U, 0x1d0ce50dc5f51d0aU,
  0xee10fa0aee09ef16U, 0x8071118bff31decU, 0x7f94b0212f6230eU, 0xeb190a0325f2e019U,
  0x140856fb02f11b27U, 0x70b060a1cf9eb08U, 0xd02190419020b05U, 0x351e06fb2902e910U,
  0x7f22a030bec2420U, 0xe1e10407fbf1e20eU, 0x7fa4bf9e9d11a2cU, 0x81ab0017d6f0f7fbU,
  0x150bff0817f50ef9U, 0xec03020afe06e4fdU, 0x70606f7fde8130bU, 0x10e70003e1f7f6f7U,
  0x51a3303e3cb2100U, 0x8994fd1ac0ef00e2U, 0x1520f41303ee0cfaU, 0xbddefb0cf003ecf5U,
  0xd8d1420efbf5eedeU, 0xcb1df3e49bfd04faU, 0xdcc9441209f1ddbcU, 0xda0be0f595f50fffU,
  0xf5072a0212f2eceaU, 0xf900f803bbea09f7U, 0xcc17e12ffced2224U, 0xa0905e022f90cd9U,
  0xbdda0b29fbf20ceaU, 0xef19f8dddbf723e7U, 0xdadf1a1302f605eaU, 0xf31200f7bcec0ff4U,
  0x1242a32a19fb2d2cU, 0x40d422fd7f02d2f5U, 0xf827b1210e044218U, 0x26ed21ec7906f509U,
  0xf200cd090dfa240aU, 0x4f70af139f9fa10U, 0x8f4c50a2c1dfbf3U, 0x351408e01f20ebffU,
  0xf8ff0606eaf70716U, 0xd9caf2ffdcfd07e9U, 0xf8fa46f2cecd0a02U, 0x9cf7f523ade91ce8U,
  0xcefa9192a3310e8U, 0x362710db6329e60dU, 0xed04ef0deb09110fU, 0x12eef2edfb0c14f9U,
  0xef0440f4cad20f13U, 0xbcd9ed19ade42bdcU, 0x8e7e118283706dcU, 0x181111ef7f17e41cU,
  0xf7f6e70dfd250fe9U, 0x2117fae434120714U, 0xf60e1ff4e3f70e05U, 0xfbf7ec0abdf117ecU,
  0x44ede8e20cf907fbU, 0xf1e130193d13dfdfU, 0xbdf4de40c54f68e7U, 0xd01d2081f81e1dcbU,
  0xf0062fe9f5ddf404U, 0x38febb0bb5e71b0dU, 0x2c0922de0912e7feU, 0x200d416e40fd53cU,
  0x34f1f5f63a05f508U, 0x4e24e593943dfcfU, 0xa0fbf70ae0402ffbU, 0xec1910b4faf82bedU,
  0xe90c0ee3050efa05U, 0x23eae6d2031bf3U, 0x1e0409ed08b9c90bU, 0x2700bc32f912ee34U,
  0x7f5e9fe39ecff05U, 0xe5f844314dffebdfU, 0x80b070109f5ff02U, 0x1625f9021bfee203U,
  0x6f71512fcfcfe0aU, 0x81c090109fcc700U, 0xfd01fa0109050d0fU, 0x190dfdff1707e801U,
  0x90b1f010207ef06U, 0xe4f202e6cff4e517U, 0xff053716f90fd7f6U, 0x81a5fbf198f5e01bU,
  0xf50f12120913dbf2U, 0xccdffcfdc004050eU, 0x200e002f5e81712U, 0x1f0a131235f30c0bU,
  0x6f9e30206f51b03U, 0x1e06240f19f90f09U, 0xf3f7ef050d0710f6U, 0x221712f92df4140dU,
  0xf2120512d40a22f7U, 0xae209e3f7faf005U, 0xee23eae117c99f61U, 0xfe03e746c9011e5bU,
  0x1cc8fef1134905c6U, 0xe61438e7340ab739U, 0xfd0d0b07ce1e38b7U, 0xae229dc0bdee7f6U,
  0xd531f0dd14a2965bU, 0xe0db134b3ee567fU, 0x28a503d53c44e6d2U, 0xda0c62fd46feb433U,
  0xbf43002d01440b5U, 0xf8ee260602eae6fbU, 0xdc3ce3e603eade2dU, 0x250bd41898e6453dU,
  0x1dd2f9ed2f1ec307U, 0xf0074b0753ffe212U, 0xf107140d021de416U, 0xa2c1ff0ee5262feaU,
  0xdee40e0bfe31e200U, 0x8bc10efbc5280c09U, 0xd9fef9f6f4fd01f8U, 0x819e000ae2100500U,
  0xf8e10d100625e7f1U, 0xc112fd101f3d37ebU, 0xddbafa0b0f4201deU, 0xd6211205022a2a0bU,
  0xdcfaecf7070a20dfU, 0xa0cc03f409fc180cU, 0xebd220fcf80af2f9U, 0xc218f10c572a3a0fU,
  0xe7ac0ff6fc2406e9U, 0xf03c0f002f0d2712U, 0xe8e9fce1fdff28fbU, 0xb8fa15f132023c03U,
  0x8f5332af630e1d4U, 0x9fb005d9c402c301U, 0xe6d41d04e933d7c1U, 0x818debd2b2f61932U,
  0xd4eaf8e5e519ebddU, 0xe1dff5f3bced322fU, 0xefe6ed25e6ec1307U, 0xedba0409e9ea1c0cU,
  0xe2ebd4e401f306feU, 0x120c10111db8610fU, 0xf408fdc113ed1d24U, 0x7d540f0439aa3318U,
  0xf1ebd3fff5ec060bU, 0xf7e90526f7ed0905U, 0xf300c3d31ffff606U, 0x3c4b301933cb1601U,
  0x2071ab511f42130U, 0x4c2630013ebee910U, 0x34e909f40f04f5f9U, 0xe401fe0e34ffc219U,
  0x64be03f0351dfde0U, 0xc3ef0f1d7f16a622U, 0x39d3fdfa2b130ae6U, 0xdaf4080d760ee20aU,
  0xc150bdf0203eb06U, 0x914e4fab80311fdU, 0x31ff11ce2208c3f7U, 0x11ad200ca11ed17U,
  0x35e91de02bfedbfbU, 0xf403f200f617e700U, 0xec1fe2f0f0fff30bU, 0x20f3f8f8df0844efU,
  0xea33ddeae2eee210U, 0x3302e6edc7003de6U, 0x117ecf5e8f4f40cU, 0x13fff1f9b30118f3U,
  0x20111fef3f40f18U, 0xfcdffc0ff90005f8U, 0xb12cf06230df326U, 0x2d0207fb080dfcf9U,
  0x41ab6142c1dee16U, 0x2a4005ec180eea06U, 0xe959fdf1f310eeU, 0xc3de030dfd0a11fdU,
  0x10a03010412f8edU, 0xf9dcf6ff11120306U, 0x42c81152225ebf7U, 0x2d2000011f19f003U,
  0xf9d85bffe6f413e7U, 0xb0000212fa051705U, 0xf8f33905ebfe0aeeU, 0xd2f5fa0010040a02U,
  0x22c409f612f3eaU, 0x1dfffb0b270cff03U, 0x208affffee1cU, 0x135500001067U,
  0x7e900000751U, 0xc3fffffcc5U, 0x144d00000a74U, 0x9ae00000e83U,
  0xfffffd520000063dU, 0xfffffba600000af7U, 0xfc700003c81U, 0x46900000ebcU,
  0xcdfffff5e0U, 0x12f9ffffff40U, 0xfffffb3000000e06U, 0xc06fffff95dU,
  0x1c7a00004af6U, 0xfffffdb10000058dU, 0xd02626070b12e715U, 0x30aef252c34a419U,
  0x28d7e9f62fe00bcbU, 0x142c03ee32fe201aU, 0xf5fb050906f3edeeU, 0xbbbbbbfbe703f8f2U,
  0xfa0e1b0605f9f2ecU, 0xe7e3ecf3d2d6de0bU, 0x802f9f605ebf802U, 0xf5d402a7b0af26e0U,
  0x221d15f1dee306e9U, 0xe5f512e5d8ffe4a8U, 0xaed011ce7e7011cU, 0xb2cf9a1108fb0901U,
  0x2c08fe081215f3f4U, 0xfaf91efcf1c0d6fdU, 0x27e1d3f2f5baffe3U, 0xfe8bc59e959b49b1U,
  0x4284622e9e0eff4U, 0xeabfd3e98e1097afU, 0x2823ebdef9d11d18U, 0x70ce5ce04e811deU,
  0x3c05fd11dae90a03U, 0x1a16f72ef7ff0612U, 0x2fded92cd10c0514U, 0xaadfbcccdeeb49b8U,
  0x51dfb17ba3ad306U, 0xbd8d70ad3e9d6e8U, 0x1703f0b4ff14e1e4U, 0x32161d054c22e7b5U,
  0xddf8f723e40b0aU, 0x18fbb6025c0609ecU, 0xde1127c8f73de3ebU, 0x40350b394f49a4e8U,
  0x23b4d0da33cc1123U, 0x153cd8304afc3c7fU, 0x30e5ec0711c62100U, 0xe8f8efdf02ba3f27U,
  0xe51e031de9e5d6d4U, 0xbdfb091bfdf0fa11U, 0xce2a0ca6ec5da9f3U, 0x37172e7f1b2ca706U,
  0xe8dadfb962d8371bU, 0x1b1eebce1cf115deU, 0xcfeff51f1ce94c1cU, 0xdbfbf89fd5d42fe6U,
  0xfe1e272c8d40d7f2U, 0x19ece209cceaf2f0U, 0x45f0f406f9a61602U, 0xb7dbe2effcb95b34U,
  0xd0240621c7f8c7d5U, 0xd2ed131be8fbe512U, 0xd14518a7cf69b917U, 0x5c1b14791e2096e3U,
  0xed3cba678d84e1bU, 0x2713cfc62bec14e2U, 0xdff3fc4714d75ef6U, 0xe5e2d5aff2d13f0dU,
  0xdb0d2534ad5ebb09U, 0x1adee30fbbc9ecdbU, 0x3febfef5e5ccf409U, 0xcff0edf11bd8321bU,
  0xd622fc32eaf6e0e5U, 0x5f40deb07ef14U, 0xda3431accf63b60fU, 0x411cfe59f705aaedU,
  0x11c5cdca2af1291bU, 0x270bcecb40fb0debU, 0xe9daf34312f547f7U, 0xf8e7e8dd1ffd0efbU,
  0xd9ecfd2cde27d409U, 0x17f00206d3d6e1ceU, 0x7e7e6e646160d07U, 0xf4f742eee90aff0aU,
  0xf8f8eaffcdeb1e18U, 0x71def16f735fc02U, 0x1ec4d3f511252fdeU, 0x11d6410001130c11U,
  0xcaf42a18ebeafcf1U, 0xeacdfc21f614dff3U, 0x3bc7cc0be80421e6U, 0xffe011c101afef7U,
  0xda0d0b151000ceebU, 0xf9d40ef206e3fc04U, 0xdb140fd134e6b11cU, 0xe121589fb2d103f7U,
  0x2af2d8f082bc4121U, 0xd67ff9f7cd381e25U, 0x8e3e3da200201e9U, 0x7e861afd3cd1a0aU,
  0xd826f39c9729f6U, 0xc215151bd219dbeeU, 0x2eb6b5eed70d23e9U, 0x18ef0e0c10fc1307U,
  0xd9f92200f6eec6f5U, 0xeac3fdf1ffd2ebfcU, 0xc33c190df5d6970eU, 0xe4222fb5d903e4d0U,
  0x2213ebf6d8e31de6U, 0xe9460edae52a2a2fU, 0xf01cf01af8edd6fcU, 0xf91a34a6e6d700e4U,
  0x19ed17f2d8b11703U, 0xea1c150efc160a06U, 0x10ede714ee0c1207U, 0xf0705f803f20e01U,
  0xf0f016ff08d7f210U, 0xffe802f70ee8fefbU, 0xde0e19cdea3612ddU, 0xe40e1718f6dffbfdU,
  0xed022a6ec18184aU, 0x1f0a9017f3aa13d5U, 0x45dde70534071af2U, 0x21401e60621da14U,
  0xcd25f939fdf0baa3U, 0x581939e811190c3bU, 0xda12fc00f1b1f61aU, 0x1bf9f8fef2e91cf1U,
  0xe3f3f601ea0f2f38U, 0xadf10524f324fadeU, 0xd6f216dcef410aaaU, 0xbefa1907f5f2fa06U,
  0xeed444b0f2fe0236U, 0x1c0aa017ccaffcbcU, 0x4309f6fd47ddfbffU, 0x311dd3dadc19e713U,
  0xda1f1563e7e5cd81U, 0x542e5cbd08361161U, 0xed03fff2d6a6f228U, 0x2e07fcf6f0d323f7U,
  0xfc07e5d6ee1c2141U, 0x98f00320e7090be9U, 0xe3ecfee5f720f6d6U, 0xd4f90def0010fd10U,
  0xf7fb28f1f3eef9f4U, 0x2907e712ee0001e5U, 0x192004061bc5010fU, 0x3819ef09e6e3ec13U,
  0xed120c3efbf904a3U, 0x271125beff160f47U, 0xf2e7fcf4e8de1103U, 0x1d05ff0905f80d0fU,
  0x915d6d5fa24072dU, 0xcef1fd1af0f8fbffU, 0xaf4f90401dffbeeU, 0x201ae0cade992519U,
  0x190ce7e4b90e1114U, 0xf111ec17d1e90ff2U, 0x16dff60af1d505fcU, 0x13f8e2e3d79b291bU,
  0x70fee00b819ec03U, 0x4f5e815f3e9ebeaU, 0xdf5fef60cece4feU, 0xbf5ecdcce98f813U,
  0x27f8e209c40a140fU, 0xfe1ffdfbc4f9fee9U, 0xf700fc17f0fc01f9U, 0x2b03e3cdb1812120U,
  0x190203f7a7f0080fU, 0xf30df10f9fda09e7U, 0xbe9f12cf7f905e7U, 0x23fbd40fd7941725U,
  0x160fe9fcc71aefe8U, 0x8fbd70cedecf80bU, 0xb03ff05e9e1f9ffU, 0xef9cbe8cf86020eU,
  0x2ff8d90eb22403fbU, 0xfe25fef6b8e8fbfdU, 0x1200040bf30df102U, 0x12f5e8f1c7b80205U,
  0x6f103fadbec0326U, 0xea09f9ffc3e502d2U, 0x19fffa2dfa1007efU, 0xef8e405f4d8ff0eU,
  0x507f706f20afb03U, 0xf6f9fd0df2f8f8f4U, 0x1bfc00ffe8f801eeU, 0xf5e6f0e5e00308U,
  0x19eee0fce111f706U, 0xf71aeeecd1f6fff9U, 0x5f707002c08f702U, 0xcf214000003eff0U,
  0xfafc1511f6ee03fdU, 0xf5ff1af1e70cf607U, 0x6e200ed3b0efa15U, 0xfb020409f801f0f3U,
  0xf50d1b04ecfd0a01U, 0xfd0108e5f8f2090cU, 0xefe705f5230cfb17U, 0xf31df908f8fbf404U,
  0xb0dfffbf60b060cU, 0xe13ede813f41a10U, 0x12cbd003230005f6U, 0x10f404030607faffU,
  0xfffd0c01fbe5fdf1U, 0x30c0913f8eafe11U, 0x148185ec31001efdU, 0xefcfe01000205f5U,
  0xf21014fef6e9f0f5U, 0x50ff11af6d00b17U, 0xa9dabef27001204U, 0xcff01fe030402U,
  0xf403f2fffafff50bU, 0x1011f106fee10f0cU, 0xf4eecaf9f80509fcU, 0x403fd0202020cf1U,
  0xf6fef0f9fb050aU, 0x310f90908f50514U, 0xefc38ae9f60b13f0U, 0xc010707080709f5U,
  0xfae7fdfbf7e6f810U, 0x217fb1008e00116U, 0xf6d8aff3050cfcfaU, 0xafc09fd06090801U,
  0xf4eff6fffaec0711U, 0xfe13060701f00117U, 0x19310620dffedffbU, 0x280423f1f9e30fe6U,
  0xfbf01815e2ca03e7U, 0x4ffedf7b91defe9U, 0x17482519cbfbd4fbU, 0x21052bf6ebd717fdU,
  0xf2f50c19c7c911bdU, 0xeef0f6d0b327f203U, 0x14341917ef05f921U, 0xf61321fe03f90f1eU,
  0x204f105dff01cdfU, 0xdb0108e9f8250f0aU, 0x4232e03ce0cdbf7U, 0x32323504e5b20016U,
  0x8f0ee12d5ca0bfbU, 0x1c0ce9eec41315ecU, 0xfc2d3e1abc15c2f4U, 0x4a3b5bffbf941e2aU,
  0xe3f4e30f8ca80feaU, 0x100fcdd813715eeU, 0x72a2e15d4f7f911U, 0x152040f4c9de121dU,
  0xfe0de5f6acce13f2U, 0xf20e15f8c6330d10U, 0xfd052211eefbeafaU, 0x13390613eabcfe13U,
  0x15fce00df4e716feU, 0x1419f220f5041e06U, 0xd702290addfbecf6U, 0x321e2afeb6a52033U,
  0x2f7ddebb3cf0107U, 0x210fd12a31314feU, 0xe6f61d11f1f6ff01U, 0x25ff2ee9b9c20717U,
  0xe4faf0f3b4cbfe0cU, 0x10b1709b70bf401U, 0xd7c1e8eac613fbeaU, 0xf710f41f15f0ef3cU,
  0x2a0e06be0b1cef19U, 0xf619f4e526d21ae6U, 0xdfc4e2141a093de9U, 0xe4ebe50cf5df311fU,
  0xfde22af1ddca0625U, 0x15d0ff0c81c8e2c2U, 0x220ffc4444fa45feU, 0xf8f6f8f5c3ea1710U,
  0xfbe7021be1bc0b9dU, 0x48020501f4fcfa1cU, 0xddbfa05de08c719U, 0xef12ed02f708e2ffU,
  0x11ee403044a02e9U, 0x3007d81efb1b0eU, 0xc2ccf7ebde0203fcU, 0xf52ad80f26d1f52cU,
  0x432005d20b4e0e3bU, 0xe922e6ff18ba26c8U, 0xf302f71830096ee0U, 0xe9ebe404e4e3511bU,
  0xebde230cdea91011U, 0x24d6f419d0bfcad5U, 0x2703ef22f204ee23U, 0xfcdffef3e314f9e0U,
  0xcb11f239ed1fedb3U, 0x2b102409ef18f015U, 0xa0e04f8b11fb928U, 0x122df9011f00bfccU,
  0xf2ef7ff2e5b040fU, 0xe02308ce371c3c0fU, 0xd8fc13dc16153ffaU, 0xf411f00a12ed0c07U,
  0x11f513e6fe021344U, 0xf2f0f21af2d301e0U, 0x17141508f3e1ebffU, 0xff01e70612fbf705U,
  0xffdbfff10beb03d5U, 0xf60fe9eafe0bf30dU, 0xc01420e6f5e5dee1U, 0x7e6e20806f003e9U,
  0x6c019de15dd26ecU, 0xcd20edefff02ebfaU, 0xc30a0ee900fcd8ddU, 0xad5fcfa0afcfde6U,
  0xf6d4170311ea0ae1U, 0xdf1bfc09f302dfecU, 0x1a1a1a09dbfff3ffU, 0xf501e20f1106f809U,
  0xf7fdf6d313fbfdfaU, 0xce05e80d130afa08U, 0xce101cd7e024d5d9U, 0x7d9e21d140a1400U,
  0xe61ba212fc1015U, 0x8103e9130d0ad9e0U, 0xf60612e8ef1cd9e7U, 0x11d3fb17160b02fdU,
  0xe9f722eb0df2eeedU, 0xb602011bff03d0e6U, 0x19091603f0f90814U, 0xf008f0f0fc0903f7U,
  0x213f0e60005faf4U, 0xd900ed13020802feU, 0xe7071eddf62df0dbU, 0xef9010e0b010107U,
  0xafd06c3080807ffU, 0xacf9f20f0b02e9e4U, 0xf070efff51df6d6U, 0xdec061e1409fb04U,
  0xf00217f20ff8f8e2U, 0xd1f2ff0e09f7def0U, 0xef0dfeef48140601U, 0xecef2902fa10e11dU,
  0x16d7f81801d70cf8U, 0x1b00e4d60203fe0aU, 0x13a1afe5d1dfc05U, 0x4fe3e02f42ad519U,
  0x33b5f92707f441e1U, 0x3910e6b6181e0900U, 0x1224fe0c4005fd05U, 0xf0d20f50410ecf7U,
  0x37d3e922ff0b25feU, 0xcfce4ce001604efU, 0xde05dcf349f015fdU, 0xeadd15fefb16ed25U,
  0x22fce70005ee0a03U, 0xf7eaf50c0ee7f200U, 0xf61ce7f27f0f0605U, 0xe5e337040b3ad717U,
  0x2bf0d5ff25eb2cfaU, 0xfdc3fb121c0b000aU, 0x1326e606641007f7U, 0xfcf4330a062cdb09U,
  0x2dfedefe22de26ecU, 0xd7f5141108fe04U, 0xd3fff40b10d62ddcU, 0xfde0f5dff7eb15dfU,
  0x60af2e0e926f42bU, 0xe001e628f9dee1d4U, 0xee08d3fb3cba29cdU, 0xe1ccf9c100e51aefU,
  0xa1beccfdc100417U, 0xc5f0e332e4d5cdb7U, 0xd06e2fe2bcf1af1U, 0xdfe7fcd6fcf51801U,
  0x32902cce2e703e8U, 0xe0e0fa33f2dad9e1U, 0x2adfe022170712f0U, 0xf7d11cedd5f115d4U,
  0xd9002d13d6fdefebU, 0x15aa0a0bb912d9faU, 0xfdae6e85437f318U, 0xecee1ff5dde9f614U,
  0xef08d41af2c0dff9U, 0xcf3500f606ed050dU, 0x7f20cf41943bc10U, 0xf4351416101ebe18U,
  0x2f14c6e4220e2c46U, 0x1057ebd61fff4127U, 0x13f5e10ad5d5f9f6U, 0x4f915e70cfbf9e9U,
  0xf3f626fa002b09f0U, 0x21bfd719f6fef8fdU, 0x8b78af529ab46d6U, 0xdab40c9acae33609U,
  0xb4f72c2eb1eb93e0U, 0xeb9d0c19c5bbb6e8U, 0x18c9b9f22618f1f5U, 0xe7000e0ce60fe615U,
  0xae20815dd020cU, 0x4506ef11dc1809U, 0xe22d14e9b707b504U, 0xf0307200e06cf03U,
  0x1ceb03ca33152bfbU, 0xefdc808250b14eaU, 0xe2f0da05e9bf28d6U, 0x8edfee11508fae2U,
  0xdfe63f07f937c1f5U, 0x1681ef22e9ebdaf2U, 0x18f3c80611dd0804U, 0xf2d408eaf8f8110cU,
  0xe508280cf1eaf20dU, 0xefe1fa0ef3f7d6f7U, 0x20e717f33aefdea8U, 0x22e410dbe3cbfae5U,
  0x11e33d32c3f81edbU, 0xbf14fb178ef7e0cdU, 0x1df1fa0e04f11202U, 0xbc5cb601eaab0e3dU,
  0x6f10d1e5cb380cafU, 0x1c2fef321fe160feU, 0x1bd3d401f0021201U, 0xe844c9380c11dc40U,
  0x62cbe031e30d9cbU, 0x30dcee0a29c62e21U, 0xfc1201ce11f6ce81U, 0x31d8f802ebd1cbf0U,
  0x12de591001e41d0eU, 0xd423e9fd94ece4bbU, 0xff09fbf5f905fdcaU, 0xd831bb03e6bb012fU,
  0x66e521f4de1407ebU, 0xf224e739dbe357f3U, 0x16c4a918ec021cfeU, 0xeb33c3280f1ff61dU,
  0xf72bd5101928b9ddU, 0x2bce04f41ce6382dU, 0xd90a0e9bd4f8e89cU, 0x9fff51401f1cc1aU,
  0x13cf19f31cea2a5eU, 0xd52bcbd4f5c6f7cbU, 0xe20c05e1f413f4b0U, 0x2e1ff0afbfbdd18U,
  0xfece421800d5222dU, 0xc40df80dcabffebcU, 0x21f3e134f9031b07U, 0xfc0df714202aef17U,
  0xf8280d3a2b02d4eaU, 0xfed924100d121426U, 0x230e15fcffecf725U, 0xbf4e0ef0f0c2ff9U,
  0x426203cf9ea18e6U, 0x9f81615f310ed16U, 0x531712fb02e6fb4bU, 0x23f3cce90afe31f1U,
  0xf1b053316f30ff6U, 0xf8fc071e0831e320U, 0x591e000402f50132U, 0x25f3faf114f717e7U,
  0x60efd3003ff0af0U, 0x122414032df51fU, 0xdd0820bbf107d8e9U, 0x1a13e8012310fff8U,
  0x2dc0fdd41ddb2a1eU, 0xcc3b81182ce30ef8U, 0x17252eaa0139dbd3U, 0x370df30f441af300U,
  0x3aaaff9337e0154fU, 0xb634882333e20cf7U, 0x1e1918ed1520f5f5U, 0x230c170d251eefeaU,
  0x30e00ae21adc1213U, 0xe119fc3b150cfe04U, 0xbbf9fabefa00e9d6U, 0x140efa080c07fa11U,
  0xeccf1f206d81a20U, 0x2df5de17dc0500U, 0xf4130ad20c01e9bfU, 0x181309021f02ec11U,
  0x1cf9f7e11bf20737U, 0xfe25fce727ea170bU, 0xeb10fef91ef8f1efU, 0x170e100f0e15f3f9U,
  0x2907ff0611ef1b0eU, 0x31e08ff03f81a19U, 0x3beceb4efdcc2415U, 0xfef4eaf0fa1512f3U,
  0xf24d00f2f712a8b0U, 0x1be3232beffeed13U, 0x3005f40f05c408f3U, 0x4eff7e104f50b03U,
  0xfb3c1c0ef4eef2cbU, 0xf7ea2106edfeeae4U, 0xc60810b9f0e2dbf4U, 0xc07000f05f7f312U,
  0x13b70a0d05ea5132U, 0xe823fbed14f703d9U, 0x45f7f25914ae1cf9U, 0xf9f6e0e5f60217fbU,
  0xef58fdfcec178cbcU, 0x21e13a38e90df70aU, 0x2b04f9f2f3ce07ffU, 0x10c0cf903f6f718U,
  0x704fe0d02ea0202U, 0x301e8e915f90addU, 0x810a1a9def3ec1e9U, 0x9171b230b0ee513U,
  0x1d84fae921e96d60U, 0xd72ee8bb1ed415e2U, 0x25fff61e08d40701U, 0xfbf1f7f6f5f80b04U,
  0xee450e05f802c7ceU, 0x14ee342fed1300f9U, 0x4f2fdedf108050fU, 0xff0c100a00fdeb1aU,
  0xdef90e07eb0e1aU, 0x1507e6eb0f0110fcU, 0xa6fc05d5f330e4e5U, 0xf50e1808f905f807U,
  0xbbcfa0004f22954U, 0xf011e0cd11ed0df5U, 0xf60e1707000de914U, 0xfe0c13f5f6f6fbfbU,
  0x1f03fff8fc021dfeU, 0x318effcf003fff4U, 0xf01c0b01d701f011U, 0xfef60300f400feU,
  0x1fefdf7fbfefee6U, 0x1feedeefc04f805U, 0xf1170afcf708ef16U, 0x2f6f506fefc0509U,
  0xfb09f2f801f908faU, 0x208ffeefefff812U, 0xffefc13ee0df3eaU, 0xd0713020801fcfaU,
  0xf713111503fcf8e4U, 0x2f20906f80808f7U, 0x8c4ba01a10324d3U, 0xefbd127200bfb13U,
  0x9afc00fd0afa81fbU, 0xcb9ef0f1acffc0fU, 0x2d0cffad50712dbU, 0x50cd72c1410fe1cU,
  0x9808dcfb1c09b50eU, 0xfeae2f21dcd0b1aU, 0x120c0802f0f6e6f7U, 0xe040afbfefbffffU,
  0xfd09121a04effdeaU, 0x4f916fff31209fcU, 0xf8d3e2dfcd0318e2U, 0xf01e51e100b0310U,
  0xb9dd070cfeeeb61dU, 0xfed0fb0611ecfe09U, 0xfad1ecf2e61516e1U, 0xfd11e91f020a0816U,
  0xb3eae0190a04ca28U, 0x3ffdc000fe20a20U, 0xe80c13f8f002eb0cU, 0x90af70c140ef30aU,
  0xfce5f51f11f9f40cU, 0x2617fdd81bf80b02U, 0xc10e1ceff112defeU, 0x160918142416ce0fU,
  0xa9cfb3811f00412U, 0x3032ee8117040e24U, 0xb6ff11f4f10df3f8U, 0xc061d060f0be506U,
  0xfaf071c04f3161aU, 0x821e6ac0d07091dU, 0xaf0fbffdeee010dU, 0xfefddcfcf2f42201U,
  0xf313f4f7f60aeb03U, 0x306f51a04f90205U, 0xf5f40107dcf1e30cU, 0x1405fe081008f1f6U,
  0x5f600120cfbf6f2U, 0xf25f1e30cff0920U, 0xf6f90404f2fcedfaU, 0xd0811011104f3feU,
  0x9ef1019fdf603fdU, 0xf91b06e90c080517U, 0x1ee4f0faebf91707U, 0xeff4e4f0e7ea31fcU,
  0xfd37f2d0e515f7f9U, 0xdd02ec54eef3f6f6U, 0x27e7ea07ebef030eU, 0xf3ece8e9d9d423e5U,
  0xfb50edd1e201fdf4U, 0xe005f453d7f4e9ceU, 0x2fecea05fff00611U, 0xfeeaf8eae6eb21f4U,
  0xfa4209eeebfdfcedU, 0xf9fd0b3fe1fdefceU, 0xdc0a13300502ddebU, 0xf6f9f30c0c14d608U,
  0xbc8050b04eb11f1U, 0xdcfdfce60810fd0bU, 0x5f8011efaf60a09U, 0xddefe0e9e1e80be6U,
  0xfb27f1dbf4f6f5feU, 0xcd05e12100ebf203U, 0xcff0600f50ae4ecU, 0xfcfe1505030ae506U,
  0xfef1e92114f60addU, 0x1e19ebe403080bffU, 0xf0100f36fbcee3f6U, 0xbf07dbf4031adbdbU,
  0x22e107fef7f52308U, 0xbb120b21ea25fd24U, 0x3020404fdbff80aU, 0x9ed3e3ae81914696U,
  0x945dbde97e3fc15U, 0xc00ee532ae08cad4U, 0xe12f8fbfcf6daf4U, 0x5f91efd180ee5e1U,
  0x6dfec2814d515deU, 0x1623d6f60010f5b9U, 0x60f0f1bfce2f3ffU, 0xc006ebe5fa14e9dbU,
  0xcf9fc09f5ff1922U, 0xc30d0119e306fc1bU, 0x11fefcf8f0cbf30cU, 0xcfe7fabfab9c30acU,
  0xfe26e5f4c9f1ec15U, 0xf6fffa24cf0fd9ceU, 0xf1504e112faebebU, 0xbfb19131020c4e5U,
  0xec7fa261be217e4U, 0x1e1ae9e4100ffcc0U, 0x16f1f00a13fa0afeU, 0x16fc11fd03fefb03U,
  0x1008f701feeb08f7U, 0xf3ebf507ebfcfff3U, 0x16d1dbf905f720feU, 0xbe8f705f503f10bU,
  0xa04e0fd04cde4eaU, 0xf5c9f919f4faec01U, 0x9ded50603081fffU, 0x5f2f10aee02010cU,
  0xfc06d9fe0fedf5fcU, 0xfedff20ff3e8f6f9U, 0xbf4e0f303fa02f5U, 0xc0709010805e907U,
  0xd01ea0207f1f9fdU, 0xf8d8fbf608fd0508U, 0xfdc9a6defbf313f9U, 0xbdff5100e20dffcU,
  0xecf7d20a1bd3dafcU, 0xf381080b10f2da0cU, 0xdbc0fb12000ef7U, 0x9d1fb0e0015f004U,
  0xec02de0611e8e80aU, 0xfcb1010107f7e206U, 0xf303f0071101fffeU, 0x111050e0609eb05U,
  0xfdfee9080b02ec19U, 0xdf4fef214fb0f11U, 0xeeddbff80f060b03U, 0x14f40a181a1ee3ffU,
  0xe1efee0f0ff6d327U, 0x3a017051c01eb13U, 0xf8f2ea0c17090503U, 0x14d9120d1515fb0eU,
  0xe8fb060b04ecef1cU, 0x3dd0efb070ada0dU, 0xef131ce601faedf1U, 0xdc46f7edfe0fdbe1U,
  0x3cdddefff00b3e14U, 0x2346bf24040c3636U, 0x48f5e537d6923634U, 0xd5caa4cfeee85407U,
  0xea6ce7f2f330a5f7U, 0xf2c1341f1504bbfaU, 0x3fc060f0eedfbf1U, 0x6bdff15080f0410U,
  0xe3df0f1624010ce8U, 0xda020eeafdf6d8e5U, 0x8c0d1ab91533c19bU, 0xf35032272634932bU,
  0x3685eeef1ac44819U, 0xf27f99f620ca544cU, 0x4fecf62dbeed2116U, 0xc706a1f1feff22e8U,
  0xfe64ebc0dd3aae03U, 0xf6a01a3c100bd22eU, 0x2af7f3230bdf1221U, 0xf2b9ecebfbf136f4U,
  0xc6f61f2df116fbfcU, 0xdfdf0e16f5febfd0U, 0x8d05fac00402e09fU, 0xa22310a1918b93aU,
  0x1aa203091daf2b09U, 0xf857e8c019d62d20U, 0xafa0019cc2400eeU, 0xef14ef1b0020e516U,
  0xfd27f6c41020f2eeU, 0xf0d10e1d0e070f4dU, 0x27e9f11afd02211fU, 0xfce0f0e3efe745dbU,
  0xcc211d16e718ea0eU, 0xf4d4092beff8d9eeU, 0xeff4ea1ee502fbf8U, 0xe2da07281940c7f2U,
  0xfce6efe234e7eb05U, 0xf8f20216310eef06U, 0xfdede930eff6fd03U, 0xc4dd0d321d60b1dfU,
  0xfae7e5e353e6e4f9U, 0xf0f7ed02360ff70dU, 0xaf0f022ef070ffaU, 0xe7ef081e1641d5f4U,
  0xfaf2dcec44e8f3ecU, 0xfaf5fd09240c0408U, 0xe2f90fe700cbe904U, 0xbbd5fdd4d5e9059dU,
  0x16f2f1fbedf60c26U, 0xd225fafdda17c5d4U, 0xd0307ee1ba7ecf1U, 0x8ac2f5c7c2de0381U,
  0x2df5fc00dfd715ffU, 0xcd27e8f0d503bfbaU, 0x150603f50bd5feecU, 0xbede03d1dcd917beU,
  0x2606ee07e5dc13eaU, 0xe715f502ee02e1daU, 0xe80d05ed0306f8f7U, 0xf2ea0bfdeaebf0deU,
  0x6030e1ef9fcfb1aU, 0x70d11f6d914e308U, 0xfc04eef207f8fcfcU, 0xd6f8fef5d5c7f4caU,
  0x18050c1df2fb0f02U, 0x1d0a03e8dc07f1f9U, 0x13fef30705f81007U, 0xef10ff08fadf08faU,
  0x2116f726fc0209eaU, 0x2b0412fa10fe0700U, 0xb0203ee02090ad2U, 0xc060b03160aeffdU,
  0x1bd701fb0fe302ecU, 0xfc10ac1107e402e3U, 0xd90413f20aff06a2U, 0x10ff90514050c08U,
  0x3696f7d904e61507U, 0x92d81fb11b510e5U, 0xf6fd081f0301f9e1U, 0x208f2150411060cU,
  0x1be9e8dd16f60516U, 0xf70ae30817cd0afcU, 0xf60e0be8ff00fdc1U, 0x70df8120ee7fc0aU,
  0x1bdaf90a01ee0b11U, 0x1725c6e10acc06e0U, 0xa1f90d00f9ff038cU, 0xf02f21411e40812U,
  0x31a008f6f9e51b33U, 0x24339ec4088d02d0U, 0xc90104190404ebc9U, 0x7f6fa0b0f110308U,
  0x1702f70809e9141aU, 0xf711eeec08b503f0U, 0x9040217090f08f0U, 0x807f516fff5fcfcU,
  0xfe08fe270001f820U, 0x140312dcfeeb08f8U, 0xdbf10221f61800e8U, 0x70bf40a01f20402U,
  0xfe12f724f104fd37U, 0x1a05fed800d000efU, 0xedf4f9170015f8ffU, 0xfdff000a000bfdffU,
  0x27ef2dff00041aU, 0x60a09e903e609fdU, 0xfe0a0c02100406ffU, 0xf7ff0305080bf704U,
  0xea0df0080800f80dU, 0xf10209120c0efafeU, 0x3f9e9eb0f0617d2U, 0xfc011e06fe010107U,
  0xd7050615e50ad9edU, 0x5e9e6e9e5fd0aeaU, 0xefd8ecf11c1613e2U, 0xfb0d200ce9ff1012U,
  0xc10cdd0ac5fdc5f2U, 0xf8eee1eef3acfce0U, 0x116150a1af7fa02U, 0xf5fefbfd05050de9U,
  0xf805f405060b0310U, 0xfaff00040807fafdU, 0xfd0aee1903d03bc2U, 0x40a03d8fc0216e2U,
  0xcbfd1002ed1aecf9U, 0xffe2dfe2fbf513f4U, 0x1e4d90f12ad319eU, 0xea1119aced0d2afcU,
  0x810009e8d11faafaU, 0xf9c306e5f2ed05f5U, 0xfe140f110c04fd01U, 0x7f904f7f6f608f5U,
  0xf5010400fa070316U, 0x60002f3f701f7efU, 0xf20b091edef413ffU, 0xafb0a05090cf3f4U,
  0xe2eb080016fd0002U, 0x6f6fcf60efa05dcU, 0xf2140b2ae1e719deU, 0xf60f10091724f000U,
  0xc5fa05fe2307f805U, 0xfffd0f080cf50c13U, 0x60a2007e413b7daU, 0xea020e020fdef65fU,
  0xff1c610be4dd0f13U, 0x284e04eaca060332U, 0x7f40fb7d000cec4U, 0xaa05fef4e8eb0973U,
  0xce85c00ca930ee0U, 0xfd03d601defc0023U, 0x33dff1bebe0911b6U, 0xd1eff1faf3ed197fU,
  0x17d21e00e7c4f6f9U, 0x6b1dff81dec0008U, 0xee021412c2f2bf0eU, 0xccf207ef0e06fe38U,
  0xe2183d04ececfb0cU, 0x102119fee126f8fdU, 0xf10100d7b6e2c8fcU, 0x8dfaf2e9ee020c5dU,
  0x1e24104e0b900dcU, 0xe9f7fa07ea1b0009U, 0x15f0ddcbd80402fbU, 0xbbeeef06eaf71051U,
  0x2e11602ede0fbdfU, 0xebc4eddf1af7e9f9U, 0xe9f4000edff1001fU, 0xe0f201fc0212f023U,
  0x901f9faeced0bU, 0xfa0d0d07f31cfcfbU, 0xeee2fae9dff6e910U, 0x9ff6fef0f009fb3cU,
  0xf3ec0bf8e6e3eddeU, 0xe4fd010ef514f3f9U, 0x14f3e9fadd051601U, 0xcbf003fbebf71225U,
  0xf8f11510e8f700efU, 0xdfdffcf005e9e6e5U, 0x26180a221a0ef7f7U, 0x20e2160ff30ed704U,
  0xf11ff3111fc01f5U, 0xee2021ad605e2f8U, 0x1b1e1722fc0c10e7U, 0x29ee0600cfc0b3f8U,
  0x3918060cd1f80bd5U, 0x2fe902078ffff8dbU, 0xeff8f716e202301dU, 0xe22ad8efc8a3eb17U,
  0x4c24bbdbc51508e3U, 0x39eef416eceb36d7U, 0x122e19f9e80213ebU, 0x1dec0b16ff03cb0dU,
  0x1f20ee13151ef7f8U, 0xdf01209ff14edeaU, 0xe83a3ac2c4f82399U, 0x34d4fd13fbe2a706U,
  0x3ff516df17181bffU, 0xfc2bbccfbed5ebbaU, 0xb5e806eec50427b1U, 0xf2ecd310f3d31523U,
  0x55070fd90c261405U, 0xfd01cce8e3811febU, 0x111c1eefd40312f9U, 0xfb06ff0d15000b08U,
  0x1304f11413260314U, 0x11fe09040f0efadcU, 0xc6f608d1a30215afU, 0x2eef62216f5f50bU,
  0x27d8fdf922102823U, 0xea1fc2c2f4d1ecaeU, 0xcfcfcdf1b0220598U, 0x18c5051512f81f22U,
  0x1cef24ff07171f1aU, 0xdaeaf1dce6afd3c7U, 0xdecfefdecfdf308U, 0xe8f02206dfee04edU,
  0x1fc01f8faf60002U, 0xfc051adff505f3f0U, 0xf4f0e6e8f9140d22U, 0xcce8421dd21600e6U,
  0xefffeb04ec054a44U, 0xeaf32ce8013ae6d5U, 0xd9fee4c8da11130bU, 0xd5e0260cd423f8f2U,
  0xdcf5ea05f5053945U, 0xc7ef16e7f73ae0e5U, 0x2fdddd11d50afd06U, 0xf9de36230003defdU,
  0xe70ceaf41001f3e7U, 0x13f32ad40101e4fbU, 0xfeadc0003410d3eU, 0xccc87f37e024dc0fU,
  0xdd29d81902055820U, 0xaee45ed0061e1f6U, 0xfafedfeaba2d2b3bU, 0xd2e54426df32e208U,
  0xe810d115fdf83e4cU, 0xf9e005df0551eaf7U, 0x56d4d20cd5fc0d11U, 0xf1ed13181bf20ffaU,
  0xea03ce0c0613f5abU, 0x210024c103f2e9ebU, 0x2fe5c9efde10f923U, 0xc7d6500a0e0411f4U,
  0xe926dc12f6fc21d4U, 0x3f314f50223d9e0U, 0x1de9dae3ca111a21U, 0xe0df330ff71bfdeeU,
  0xfa15e805f2e51013U, 0xede1f8e6021de8e3U, 0xd9f3ebfdd5f9eef4U, 0xecf0fa040cf91218U,
  0xfb01070609130424U, 0xeb05f9d7fafdbdU, 0x10806020f190912U, 0xdc26fd0ee1ef131bU,
  0xf3fa130befdb07fcU, 0x23f808e123031427U, 0xe0002f612fd1e12U, 0xf7fefcf5fafa0de9U,
  0xf403d708ff18fd04U, 0xf51e09ecf30cfcfcU, 0xe4fa08f2cce405eeU, 0xfd06e4f70af2f4fdU,
  0x90de802072d0e17U, 0xf606eb07e9eb07c4U, 0x12fefa02f800130dU, 0xcd13ec08fef0262dU,
  0xf42e0eea810efcU, 0x31de0609f3ee0d1aU, 0x2e08fcf306fe111bU, 0xe7fdf604dbeb0a01U,
  0xf105db0ff01001f3U, 0xff1a24f0fb19f313U, 0xe2010a02e5f108e5U, 0xd10ebfffb00eccdU,
  0x907dbf2153409faU, 0xe203dff90ef50bc8U, 0xe4e1f7f401091be0U, 0xd802f2062b031b3fU,
  0xbee11f007c201f9U, 0x6e7e613d6e2fb00U, 0x2d0907fdf2040217U, 0xedfef811e9f50920U,
  0xe9fa0606f5f8fbe1U, 0x2f813ec0101e71eU, 0xb0e7e3b9093ee1edU, 0x2f1555323236bc20U,
  0xf4d3f3de32e5190bU, 0x12fa17d627091d0cU, 0xc0f404c71c4507eeU, 0x1e31342b2f31c824U,
  0xfbcdf4fd1ffb1f16U, 0xd0a0eef2ef13126U, 0xd1f6fadef82e1cfdU, 0x800f71b1d11e515U,
  0xd7f204f115030609U, 0xfcebf60a19e3f91bU, 0xd120f9082718ef38U, 0x18274d273262a21bU,
  0xfeecef2651e52ad7U, 0x3c104181474b2f42U, 0xcd12ff163f08f237U, 0x17f8340f163eec21U,
  0xfef7f12921f91dfcU, 0x1b054897262e024aU, 0xd3fff8e42b271116U, 0x16e000030df21611U,
  0xdf1214ff010e04f2U, 0xfff722cafa11e613U, 0xfd1e0c17fefbd641U, 0xf82816271c2dd019U,
  0x11f0e8132ffa24e3U, 0x2fcf6b72e2e1927U, 0x515ff141c0de445U, 0x29f7fa1214f90b16U,
  0xffc050813f20be7U, 0xeff714ea1a39f20bU, 0x19f3f1fa16260818U, 0x2ceaf90f13fe1a08U,
  0xec0724fa080ee609U, 0xefe51c030e06ed07U, 0xf1010ed90119f1deU, 0xbff1110f7fc0cU,
  0xfeff1bc12f52325U, 0xd322d50f18e015e9U, 0xaef619b4f83ad9b3U, 0x80cff271cfff50dU,
  0x18d5fc8121f5384cU, 0xba2db4151dbb10dcU, 0xf2f80be7041feeceU, 0x5fb05110909f7ffU,
  0xfaec0fd304ef112bU, 0xd602f020fde1faf4U, 0x18f3fb0b20fe0bfdU, 0xf9fe0c02f7fa07f5U,
  0xf1000a21eef2050dU, 0xd1015eff8f505feU, 0xece0f7f63122fee0U, 0xf00f1205f8fb03ffU,
  0xeb0afa00f1f61528U, 0x32e0ae10cd613fcU, 0xf1ebfd00120affe9U, 0xf910060aff010501U,
  0xf505f404f8050f11U, 0xfd1effe600ec1107U, 0xbf5e73004d62b1cU, 0xfbf304f3f40bfaffU,
  0xed06083df2faebd0U, 0x29f424f5eb10fb1bU, 0x28edd83a12bd2c21U, 0xf7f700dbe908fffeU,
  0xde18005febf7dacaU, 0x31ff2debef18fe2bU, 0x17efe11a0be11b16U, 0xfffe02f7f9fefe04U,
  0xe613f336fbfef0d6U, 0xe0418e3fd13061cU, 0xebfdf6f0fc15fb13U, 0xe727e40cf0e7f521U,
  0x10f2bfe1e60e1befU, 0x2532e2f617ef3b1dU, 0xeffcf4edee0cf317U, 0xd14cd10ff0e1ed21U,
  0x1c0ea8dfe51b0ffcU, 0x202fd9f418f24524U, 0xcf9030703f20b0eU, 0xea1fdefbfef01708U,
  0x171fe9f4f019f503U, 0xf3f2ff1809f50c03U, 0x4eade01f8050ffdU, 0xe707dcfbeaf91209U,
  0xf304e5eee62307ffU, 0x1004e91806f72203U, 0xe7e8dafbdd0b0c29U, 0xba5db009d8f2e62bU,
  0x28ee81f8ed3b0300U, 0x3a3ac0e824ed6f3dU, 0xe4fcf8f2f80ffe21U, 0xdc4ece0eefe9ec25U,
  0x24f79af7f8230d07U, 0x202ce3dc15f5411bU, 0x8eeeafef6ed0bf7U, 0xf9f1e9f804091ef6U,
  0xf2191606f819f20dU, 0xeee9ff2ffe0cfcf3U, 0xf3dbd5f4ec0a1a0eU, 0xce21c801f311030dU,
  0x1fac30dfa20fd1bU, 0x2311dc0f09f13212U, 0xf8f9ebfe0411040dU, 0xde35e00aecfaf41bU,
  0x12e9b317fc10160fU, 0x312ee4e20ff03b1dU, 0xd0f21ef115e831dbU, 0xf3fdf7fffdf3dc03U,
  0x1f99f03c1429ed37U, 0x34f7088b01f1faeaU, 0xc6f81f0509ec26eaU, 0xf7e6f6f4f2dcfc13U,
  0x1a8c2632fefffc27U, 0x1410f281d4f8e9e4U, 0xc7070c1ffd02fa01U, 0x17d609f7f7fafb1cU,
  0xf1df3118ecc60efeU, 0xe8f2f2baf20ae013U, 0xe0f40b000e08feafU, 0xfffbf3f8f6c40a05U,
  0xfebe2e2cd502f513U, 0xed11f6c4c2e90003U, 0xe6eb0b00e50c03e7U, 0xfee2ebf4e3c81010U,
  0xf9e82211dada0cfeU, 0xcf03e504c4cfe1f4U, 0xf6faf2ffdd0cf2f4U, 0xbe5010a0501fbfaU,
  0xe32906e506c5fedcU, 0xc2f4f32cf9fdea12U, 0xe0f11340e02ced2U, 0xe601e0e8d3dc02fdU,
  0xfa271dedddddffe3U, 0xd315c62cc4d20601U, 0x1a02fb13ed0fcdecU, 0xf607e602f1e9fff8U,
  0xa6f04c5fee2ffd1U, 0xe604e66005e905f3U, 0x30f2f5f5e2fde904U, 0xfb0aee0d1528ebfdU,
  0xe964e9c11afb04faU, 0xff02196d1d06fdf5U, 0x50b0df9eccdf7efU, 0x1719e5041c02fa15U,
  0xd030527fb199916U, 0x4ff9a212f8fe0f21U, 0x20001dfa09dff5fcU, 0x1e110df50bf92724U,
  0x15f01c14f117d9e8U, 0x4dfce117f9f10712U, 0x1bddf3ff12f9e9fdU, 0x35f1321b1525131aU,
  0xfce6201df90819f6U, 0x33f722fe02f6e817U, 0xd09183ad6a919dcU, 0x1f3c9bf223f2ff3bU,
  0x2510f4f70f3781f7U, 0x5618d6101ee53c0cU, 0x4d05283b05a7e1d1U, 0x2a23f3e522e5292fU,
  0x15fc2101050fb9c3U, 0x4321211002e6170eU, 0x31f3ee120fdddcfdU, 0x35e347f4190431f4U,
  0x4fa2c1ceef631daU, 0xf100340fe306dc01U, 0xf8f91c32edfc2305U, 0x133bbf01f3f9fd23U,
  0x1814ee1f0920d0fdU, 0x4c16390104ee3828U, 0x270c164707e5f5faU, 0x1b23f401f7dd2611U,
  0xdf4f4110b13e7ddU, 0x221d2c09fbe71e20U, 0x14fdec1012e7ed04U, 0x19ed20f5010428f6U,
  0xfb080303f7f815f0U, 0xe1000f22f30bf40dU, 0x13ff171d0c0b20e6U, 0x14ebe51fcdddfbd9U,
  0x1b2dd9eafe2aeefcU, 0x16fbe221f0edf1fcU, 0x12ddf2e6fed00bdaU, 0xece4f5ff1ae4451aU,
  0x4fb180d05d8f7f5U, 0xc2ddde25faeaf62aU, 0x50520ef0b161909U, 0x10ffff151603d5f1U,
  0x805d909f80e051fU, 0x5eaf909e9dbfa07U, 0x120f0624011d08eeU, 0x18f6d151e3ececf0U,
  0xdd04f608222fdff4U, 0x25f0da0d23fce9faU, 0x22ebf8f3d8e307d5U, 0xbdefd11c660d2a28U,
  0xefe3301731faeed4U, 0xf4cacd213ad8033dU, 0x519111af62e0af6U, 0xfe7e6353b36aecdU,
  0xccd8d52638230512U, 0x24d8f8f606dcf6f7U, 0xf611050e0822b01aU, 0x20af30fc0f5f8a7U,
  0xe06fcfafa08fb02U, 0x121015d5e515f3ebU, 0x6ecf4d9bbd290f7U, 0x8100e2bd2af24607U,
  0x19090beafab803edU, 0xf61b07e507fe0111U, 0xeb0b0706c72fb90aU, 0xd61601fe0b12c3acU,
  0x7e7b9eed01b1429U, 0x50bfdd3fb04fed2U, 0xb0604da1420e704U, 0x12f71e1ef5fbdd18U,
  0xdef7ffdc0fd3fde6U, 0x1f0425ec050bf617U, 0xe713eef5e9d71208U, 0x10f00de4e4db0be8U,
  0xebfcf11aba4a202cU, 0xe3e2fefdaf08e8b7U, 0xf00503010405fc21U, 0xdc1803f9ece40e17U,
  0x70332f8e40012f7U, 0xf9eae6f21e091415U, 0x110703d00118c019U, 0x4f091118dfe3d401U,
  0xe2fff0e30ed404e1U, 0x271a1ce50e20f714U, 0xf0fc07fee5d11afcU, 0x1fe7f8d0e3af1dfcU,
  0xf204b81db6611129U, 0xdfcaf80e89f0ea81U, 0xf9fcfffcf60be613U, 0xcc16040ae6e3092eU,
  0xb032f06e4cf13e5U, 0xfae2fefd1512171aU, 0x231e0df1060fe214U, 0x4e13fd32f3f4dfe9U,
  0xf3feeaf40f0ef4f8U, 0x2407ffe8180c0810U, 0xf2d4ee0f06f43bd7U, 0x11f8fae90cda100bU,
  0xfbf7be0fd83fec17U, 0xdef0f418bde1fa84U, 0x9fafd01f50bf8f0U, 0xe009001d0b0a063cU,
  0xf3fe140603c1fbdfU, 0xf3ee090409f6022dU, 0xfefafd01130dfb00U, 0x8e401050d0dff04U,
  0xea0615020df2eafbU, 0xe9ecf8f4faf9edfbU, 0xfc121001f0e500edU, 0xea23f3f3f8f5fadfU,
  0x2bdce9fcddff3bfbU, 0x1831d632fb071e25U, 0x43f6ee27f0c4221bU, 0xefe5c5fbfcf42612U,
  0xf744f0ff0f24bddeU, 0xccf28fd0a01e2f2U, 0x13fcf1f60c09ffdfU, 0xcf307050ffb0905U,
  0xef1f15ee04f5e613U, 0xf9f5f7e707edf5eaU, 0x841522c80429d8b9U, 0xf8253011101ac200U,
  0x2481fef205d55d1fU, 0xea51bc0b16df3523U, 0x4ef5f523e9f92409U, 0xecf8c9ec02001cedU,
  0xee46fff2f22cb9e9U, 0xbb90a1f040de316U, 0x1efaf518f9f81711U, 0xfaf804faf8f914faU,
  0xfb310415ef0af717U, 0x1df10bf1fffbfffdU, 0x87f902d10404e3beU, 0xfb0a2d011211de0eU,
  0xc92050906d02f26U, 0xdf3be7e30ce40df8U, 0x1dfcfe19e90a16e3U, 0xfefae70bf90507feU,
  0xed2805e90024e4ecU, 0xf1d00a16fcfbfb1dU, 0x26cbdde0dd02e3b9U, 0x18274c052f41c8eaU,
  0xe5d9fc0510c4d2f8U, 0xedf6a52413e024f9U, 0xfabec2f1d81ff09aU, 0x324e60163643a2dcU,
  0xd79ceaf5f9aae5f4U, 0x190b982200d23b24U, 0x2e1ee0ee10f0fc7U, 0x352f280e2324dee8U,
  0xc8dcfce704dbfcf5U, 0xfcf3fb1c15ef1537U, 0xbc799fac2fdd1abU, 0x38284a132035c1e7U,
  0xc3d309201797dad7U, 0x16fd92ea12d74428U, 0xe2a788f39612d795U, 0x50567a132331cce1U,
  0x9ec6ec0ffd81dcd2U, 0x5fcb4f211dc6556U, 0xe1c5d90dcc190ee1U, 0x2d382914022818ecU,
  0xa70ef2f907d6f300U, 0xd8f83b150dea3054U, 0xf5e1cbe7d303edc3U, 0x22050ffc0706f508U,
  0xd00df00c00c10ff3U, 0xf705d307f9e015ffU, 0xe0cecfcab6ffddcaU, 0x30190ef9efe627f1U,
  0xbb12fd0aebbbf801U, 0xc816f211ed013009U, 0xdbc9def2e11c0908U, 0x180406fbf4f33c07U,
  0xd23c0808f8e4f82aU, 0xc1042e25f5f80007U, 0xf90806f3f2d50b19U, 0x9a09d7e992ea0be8U,
  0x6eeef0ac116fb0fU, 0x50d0b05d311f30cU, 0xfc04f6e60afe160bU, 0xbc00f2ab90d4fa02U,
  0xf5efe7fbcd0208f7U, 0xfb0df619d308fe09U, 0x1060af20d0f0d19U, 0xdf0708f0ecf1f318U,
  0xfc03fe11f60314faU, 0xff03031103fc0afdU, 0xef110efae8e30704U, 0xaf10e100d004eafbU,
  0x1108d20bf525f308U, 0x151d0ff7f113170eU, 0xf00501e206ed17f9U, 0xa618f4c481e2e705U,
  0xfaead804c110ff04U, 0x40e030db70712fbU, 0x4fffdf7110915fbU, 0xb70e0edbd0ddf324U,
  0xe7f3fe05d9061efcU, 0xfe00fa13f0fa0d07U, 0xf9000903fd09090bU, 0xe3110702f908dd09U,
  0xa19e1fe0b16f5e6U, 0x180f16f4fb07181bU, 0xf0070af7fcf3fe01U, 0xc711f80cc2f1d90dU,
  0x9fcde01eb0504fcU, 0x7170cf5d30d12f7U, 0x207fffe00f514f6U, 0xc4f801e9cee0f608U,
  0xeefafd05d6020910U, 0xfa010c01d4f200e7U, 0x13f9280a31f1b520U, 0xf42a27d2f63eb509U,
  0xff59cdb8eba34901U, 0xb2584674060b4cf2U, 0x2fee32241efad405U, 0xfa2c10d61431ae36U,
  0xf257da07079c29d0U, 0xea4828640d033bfeU, 0x20e71711f424d704U, 0x1d0f1011150ae934U,
  0xe039fb2c14e4fdfdU, 0x111d0d1a04f4fdffU, 0xf1bde836adccc3e9U, 0xac0723b8ee1c1284U,
  0xf403f8b2f3cf280dU, 0x81550844f8fb2314U, 0xfcde53fadc8d8d4U, 0xabf104bee60d19b0U,
  0xc90e20ce06d915e0U, 0x92222c37fade0de3U, 0x3eff71eddffc2ebU, 0xfd0908fef31807U,
  0xd60bf5081bfe0ae7U, 0xf91106f501e609f6U, 0xd40d0013c0e4eccbU, 0xf11b30d60a140894U,
  0x69a0b402c0c10fdU, 0xfb38f9a100320b0dU, 0xe7f8f423beeef1dfU, 0x3041cfc20fe0abaU,
  0xa9e151a192206d7U, 0x4121aa1291c0536U, 0xf100ee0de20cf9d5U, 0x11edfd2b17012307U,
  0xe2cbf0181223fbdcU, 0x50513b31ef70438U, 0xb9eb5ef0e120fefU, 0x17f7fc19150ded0bU,
  0xf2fa18fd09f4eef1U, 0x3dc000c0ee20100U, 0xa81b3fa070e10fbU, 0x110df7161309f716U,
  0xf009fefb060de6f8U, 0x5e1ea0619e01201U, 0xae90005000af005U, 0x51108070a08f211U,
  0xb04ee01030803fbU, 0x50dfbf90a0213faU, 0x3a296ed05060c01U, 0x11fffc0e0b0506ffU,
  0xedfb09fa0103f6fbU, 0xfad809050cde0803U, 0x1888df8fe000d0dU, 0xc19f90500050e09U,
  0xec08fafef70eec0aU, 0xffeffd0505f11b03U, 0xfeeaec01ff07ee0aU, 0xfe1902fafe03fe01U,
  0x401ee07fe040afaU, 0xfd13fdfb00081805U, 0xffd6c60200031000U, 0x503fc120202fe0aU,
  0xf5fafc00fb0cf614U, 0x5e801fb0df60708U, 0xf4e6d607fe09090fU, 0x4140101f7ff020eU,
  0x202f905fb08071aU, 0x20101fefeff1309U, 0xf604fc05f602fa05U, 0x110fffdfa04fd08U,
  0x304fc060207000bU, 0x60707fdf90c0c04U, 0x82017030dccfbf7U, 0x1b0905e813fd08f9U,
  0x6ee2af405e40be5U, 0xe4fc10fa0205fcdbU, 0x1f0e05f40c81f0e3U, 0x12040fc70f08fac9U,
  0xe7ff2eeb02d2fccaU, 0xd5ef0319f109f0caU, 0x1d05ff0f15930802U, 0xfafb06dafb03fdc8U,
  0xebfe1e0a00f9f4cdU, 0xf1e8f91bf413edceU, 0x2150fe105b4f8d5U, 0x1c150ffe191df8fbU,
  0xe60c2dee08e5df03U, 0xd9e1fc0d11030ae6U, 0x190d02d6089af3d2U, 0x1e181ae20e19f2f9U,
  0xe10831040ee6e5f0U, 0xe8e9f917090b11d3U, 0x1110d020eccfdfdU, 0x71912eb0401eb04U,
  0xeced23150b09f7faU, 0xafaf80605080de2U, 0xfa091bd7ffc8ecffU, 0xfe060300fd1b00fdU,
  0xfb11180504f0ea1fU, 0xd9ee04120115ffe9U, 0xf40817d301d0ecfaU, 0x6080efbfa0af910U,
  0xf7f920150ef3f70eU, 0xeef5fc04ff170ff1U, 0xdd0718f60af106f6U, 0xfa030cedf0f9fe0cU,
  0xf7e41d0ffb0b051dU, 0xfff8f4f6f40103fbU, 0xc1bfd252ff62b17U, 0x29f3f923ee0bdcddU,
  0xf900d63503eef7fbU, 0xee81511f604fe14U, 0xd2e4030cf2d257f9U, 0x519e7d1f2bf36d6U,
  0x101a81d6d051e911U, 0xcfdeb61decb10acfU, 0x7baf018f002e7ebU, 0x40810ee07f01a0eU,
  0xf60a00d6e90aff14U, 0xe21d1306f4dd02eaU, 0xf30a06fbface5aeaU, 0xc04f1ff0cf112e3U,
  0xff0fd4e6062bf4feU, 0xdae1df0d05d3f6f4U, 0xdcb913ebb604d3c4U, 0x7140df301dd292fU,
  0xf6fc43c5f9f11709U, 0xe30fe8f2c2ae07d5U, 0x26d5f5062b2ab9f3U, 0xbfa10190e06de0bU,
  0xfffe361f01c207fbU, 0xff2c3dfcf3e900f1U, 0xaecf3e9e50df6e1U, 0xe90614fcfffb0e09U,
  0xfdfd04eff8f700fdU, 0xf0216f8e9fe03fdU, 0x19e0eb0cf323b5e7U, 0xf9132611f618f515U,
  0xeeea3e29fcc5fef1U, 0x140c2fe1f7f00305U, 0x28f8d80c030a04fdU, 0xdf04f805f50df4f7U,
  0xf501133a09f5fdf2U, 0x808ea07f80706U, 0xc60e06e6ec0306e5U, 0xf5f9eaf2f2eb13ecU,
  0xfc051a93f81a092bU, 0xc0f4c43702d7f0d4U, 0xbf7f6f3f91d08edU, 0xedfc0304f5f90efdU,
  0x5fffadeff0cf310U, 0xff06e11901e8fdf0U, 0x43f8f717171a0204U, 0x1021cfe0817f0fdU,
  0xf70a0240fce9e1ceU, 0x47051ce6fb0f011aU, 0xb8010ec4db3102d6U, 0xe7f6fdf7ebdb15fdU,
  0xf30f0f81fa10fa51U, 0xceefd02efbcbf5bdU, 0x1fdfcfff625fcdbU, 0xedf90f0600110406U,
  0x2f4080bf8fcf203U, 0x1906effef1f5fce8U, 0x3b10fc2618f61210U, 0x30f12f80a14e20fU,
  0xfcf80f5afdedebb6U, 0x510d17c008230b2aU, 0xb1fd13d1ef1d05f7U, 0xeff907dcf8ff0900U,
  0xf7210cd0fbfeff43U, 0xf2f8f71e05f6fce1U, 0xd080212fb07fceaU, 0xf70308f30211f605U,
  0x6fc0b2806f8fee4U, 0x18010500fd1c0905U, 0x1915091809ed140cU, 0xfc0cf20afafeed0cU,
  0x5eef62f0700feceU, 0x1d0802cfff101023U, 0xf9f8f0d8edd04cdcU, 0xddfcf2f3a1e275a7U,
  0xe5fcee1caa53c83aU, 0xf1dbd40bdefbfae2U, 0xfffdda3d1824eb05U, 0x2f102cc42c2fc528U,
  0x2f5e00f1cf0e6faU, 0x7ff17d70d181bf8U, 0xf11b1de817f1fecaU, 0xaf112281514bfedU,
  0xba053b1618f107d6U, 0xfffa23040900ff50U, 0x19011c46fcf531feU, 0xeef21cd3d2f43ee9U,
  0xdb0bee28c71eb90cU, 0xecdafeefe4f5e7dbU, 0xf4050e222a18aafeU, 0xa372136432c8135U,
  0xfa04140a33c32dc0U, 0xe70f1ef821f74150U, 0xdd040de6f9d915e2U, 0xf0f70117c4d734c4U,
  0xfe100bd6d0060219U, 0xebe9ef1eeaebf126U, 0x1c000b20f816e0f7U, 0x13ec1f0624f6e32fU,
  0x8e0f50819dfeec2U, 0xd2f505fcef0afcf2U, 0xf102f0f81b0db5d7U, 0xea0e0549fb04c327U,
  0xe30323a317d33fffU, 0xee12ee0901bb1c3bU, 0xcde4e7bf01051df6U, 0xe2f6fbd7d1d16ac0U,
  0xaf0d0ddbd0dde41U, 0x6f4f419f0bee7bdU, 0xb2fe180bfe082b11U, 0xd8e71afcc3db030dU,
  0x93127fed7483219U, 0x10f4f98fd8cfebe2U, 0xb4fc250c0a0f131eU, 0xccfb1ef4d6e2ff1bU,
  0xf647380ae7482722U, 0xf3d911c2e7eff4ddU, 0xef08150a0c120802U, 0xdbfe13fefc0aed0cU,
  0xf3131c0a08f1fbf9U, 0xeee318f5081df3d6U, 0xc2e5fb3295e70fd4U, 0xfaeb090d2012d309U,
  0xead439f3230336ffU, 0xfaecc6810fbcefc9U, 0xbdebfb3fb4f8f9edU, 0xba0aee0f1417ed20U,
  0xf2f7310f261d2402U, 0xe6fbf0bd18d113e9U, 0x1a0c1c13e40408f8U, 0xc610f90dfafffe21U,
  0xf90908171214fdf7U, 0xebfc02e10e0811f8U, 0xe3f3ed46a4defccaU, 0xcfdee113631dbedU,
  0xe1d412fc33f20dffU, 0xe9fde3e52ce4f3c2U, 0xf6f7ef46c2eee7d7U, 0xdbfaed022825e20eU,
  0x4e9fc0c310609e4U, 0xdb05e30b28050de3U, 0x260a0709d6f8faeeU, 0xe20fea0e06fd132cU,
  0xf003f0190a1ffdd7U, 0xec0df3e8f8f4110fU, 0x190e0d150810ee05U, 0xdef7e919dae0f1e2U,
  0x41e0723002ff8ecU, 0x41de33150203d307U, 0x1fa025417d6ed1dU, 0xb0bae6f7a7ee09f9U,
  0xff0fe9391329e7bbU, 0x16da4506edfad5ceU, 0x2050739fdc7e021U, 0xe7d50507f5140c26U,
  0x815f21e12eb02cdU, 0xf5f71c08f624ee0aU, 0x1218190f0209e6f1U, 0xcbf7ed16f5f9fae9U,
  0x901180a063912edU, 0x21e0281ce91fc304U, 0x1709024502dbe410U, 0x81c1d4d8b1e031cfU,
  0xebfa0b31f14dfdccU, 0x3dd0b13d416b8d8U, 0xfe0e021cf6e7c90cU, 0xbd60906fdf10ffaU,
  0xfdec000901f60bdeU, 0x2f00be90b36e700U, 0xef0d1cf6f804fce0U, 0xd4050ff2131bdfecU,
  0x27f60dce1f1a1405U, 0xaf3013a0610f5fbU, 0xf81a0e20ea02f1edU, 0xc0f20df4e3270ddeU,
  0xf6f81af5f33d00eaU, 0x7dbe61b060ff0f1U, 0xd80a0c0f01f7dc04U, 0x1b0b06000f0ff0e9U,
  0xe7ffe009020b06U, 0xfef007ea190f09f8U, 0xec160f1f2120fdccU, 0x261722111503ec16U,
  0xd0de8d715fd07ebU, 0xfa1ab70b04f91cfbU, 0xa4201c2d021ee8a2U, 0x2a292b342a0fc234U,
  0x1f201ad09fb0c00U, 0xff16c70d0eec2afcU, 0xbefd080c0902e7c5U, 0xfb0f101b0519d820U,
  0xf3000bda06f0fa07U, 0x2ee100001e2080aU, 0xef1121261b0af5c7U, 0x1d10221301efee13U,
  0xf602ede601f20d03U, 0xf921f7e3ecee17dfU, 0xb5092d28140de381U, 0x1332341bfaf8c933U,
  0xe4f8f4abfbe416f5U, 0x12b17e7f4e839f1U, 0xb9f70a22fdecf6c3U, 0xf3170a0af002e114U,
  0xe704ffe5f5fafcf7U, 0xc0215f2f6db1908U, 0x100a0d3201f509eaU, 0xfd030dfff5e6f404U,
  0xecfcfa17fbf4000dU, 0xfe1120cbe3f8fde9U, 0xe00514390df100dfU, 0xe90619fed8e7f60cU,
  0xf1fcf8f2f1e907fdU, 0x11c25dae2ed0ee9U, 0xe3070729fdf810f7U, 0xe90c08fcecfaf915U,
  0x207f202f902f9efU, 0x60715e8f4fb0cfeU, 0x3c05e83ec8e3f4c6U, 0xf736c71b2612cdf1U,
  0x1f560d251d12c7d0U, 0x3bc901f80ff138ebU, 0x46fcf953ceaf0681U, 0xe768abf821d5d6fdU,
  0x211cf814f90313a3U, 0x34d53dfe08eb43fcU, 0x34e7f14aff88fbc7U, 0x826df111ae0d8ffU,
  0x30afa1612fe1c9bU, 0x3d246300fdf1803U, 0xf011116e519d710U, 0xf3dcb23fbd4d00aU,
  0x47f9150b0be72ef2U, 0x2e171dd8e1ff41e8U, 0xfe002734fdafc7ddU, 0x45c0debe9bff04U,
  0x59b3f5fecfd65cbdU, 0x10172c02cb1c36eaU, 0xecfa0b0a1dabdeffU, 0x1915e4fdd8d411f9U,
  0x38ccfffdfde348ddU, 0xd20415fbdc0108f1U, 0xbaf1eae6f425f4faU, 0x11fddc16ebd8f8feU,
  0x18dc20f108c93b2aU, 0xfbf0fbf9e9eaffe6U, 0x92f2f60710ceeef9U, 0x2502d90ee9db3008U,
  0x3ed001d800dc3f25U, 0xc4090624e6f816e2U, 0x8deaf2c713e904e2U, 0x2009e040f8f42817U,
  0x20fe0e9d1b1e2f27U, 0xc5fcdb1304d10d04U, 0xf5011309eafaccfeU, 0xf724fafc120bedddU,
  0x181b08e905fd1b15U, 0xa408ff23110209ecU, 0xe040317f1c5e9e2U, 0xdae7f3d4fc0d1881U,
  0xe01c21f209dcfe13U, 0xa6ce0b26f307d48dU, 0x1f0ffb2d02e1faebU, 0xeee1faf4fc1517c8U,
  0xdf1315fd28ec0a00U, 0xecf605110cfbeda9U, 0xf00f06fc3006f8ffU, 0xe12af801f4fee80fU,
  0x1cfcf61af01418f8U, 0xe40fe2d70cf83d19U, 0x16f10914ceeaca02U, 0xdf2de6f3fafcf49dU,
  0xf710fafc05fa0b0cU, 0x9ef2f10710fa0821U, 0x28040f19e1d0f8f7U, 0xddf5ebe602020db3U,
  0xd11716f80af50104U, 0xbbd0fa220914e0e3U, 0xdc06ede3310627ecU, 0xe4fe0004f1ff092aU,
  0x8d4fd03f501fbf5U, 0xcffeac4f8f11308U, 0xe8faf70b0112f1f9U, 0xf0220014f313ce17U,
  0x6d5ec0a1d160b02U, 0xafcddbd0eed3432U, 0xf7010c26d402dbfaU, 0xf728fb03f6f5eee3U,
  0xeae8f300fff80e0fU, 0xe1efedea0bf40c25U, 0x1b0512f0e90f25e6U, 0x8e9c91c210c3a1eU,
  0x1a0d1def25230501U, 0xf8e7e02b2ae5f00aU, 0x318052cc7214adaU, 0x12d4a5424f36f71dU,
  0x80b06ff7f49d0efU, 0x1cc6e9075fd1e530U, 0xf0f071ce10528d8U, 0x13e3da4b2431f917U,
  0xdbef452d5c20df0dU, 0xffbe03e433d2f132U, 0xf2e31e6ec07cb10U, 0xd2ffcaf8453325ecU,
  0x39fbf8f21efd2e04U, 0xf026fe1c2e1d0600U, 0xec2e2e1ca820f911U, 0xe1d79e356c69dbbaU,
  0x2c04cbdd7c06ddf9U, 0x14090bff7efecd0aU, 0xfc0a0e21cf18e5f8U, 0xf9dbd64a526ae406U,
  0xe0e518fc6fe4deeeU, 0xedfe10ed69ffe822U, 0xf0152ed009e3d0ffU, 0xc013e2c90bfe20deU,
  0x48fdea11eaea3611U, 0xf13a0511effc0e02U, 0xea224105f1fbde14U, 0xcb17c9e5fb07ee8aU,
  0x3716bbefddf1f90bU, 0xf5380efb0f01ebe6U, 0x21d28faf9f8d0f8U, 0xdff6e9f70a0713dcU,
  0x1802fb08ecbffdf3U, 0xf81f08dd16f9f301U, 0xe0bf1ffbcfd06efU, 0xedddde11082407f9U,
  0xb0f2e3ea190291eaU, 0xf3d817121607e61aU, 0xa19f4fbeef5efe0U, 0xe0c8f207052d0c07U,
  0x87f5f0f728f29ff5U, 0xe5dc1bfb15fee91cU, 0x1c09091021f7fb02U, 0xeef717eef3ff0afcU,
  0xe908111cfff50defU, 0xfeff17f6000f06fbU, 0xfd0d02d0c0072106U, 0xf1deed1e1a30f204U,
  0xa2e2f2ed180e9b06U, 0xf0c41b122efeda06U, 0xfe0c17ebf41411feU, 0xe8cdfb1e2032e714U,
  0x81edf1e8260da415U, 0xe3e20901260cd715U, 0x1123281b3b07fb07U, 0xf0f621eefefbf60dU,
  0x904140202001af1U, 0xf6170ee7fe2103fcU, 0xdd1211d5ea192011U, 0x3f1ff161220e5ffU,
  0xdef402f71600f224U, 0xf0ee030e1f13ecfbU, 0xde0f20f30f1f0813U, 0xf40613201cd80cU,
  0xd603f6e71512ec2bU, 0xf2fcf3fb1811f00eU, 0x10180e161a11f00cU, 0x10115f402fceb08U,
  0x1113000307ff1bf3U, 0xf51306eefa1805ffU, 0xe90005e4110c08f1U, 0x12071806f6f6e7feU,
  0xfffef415fd210bfaU, 0x401e3ebf600fcf6U, 0xf7f900cb0e08e1f5U, 0xfe1730dfbfcfe9f3U,
  0xfe5ec0aab00220fU, 0xf92a02f0bd1c01d3U, 0xfb0ae40701e2feU, 0xe3fe27d1c6d2eeffU,
  0x7ed0f06ade31411U, 0xf71408fed00befd4U, 0xf5f2ece91df303e8U, 0xfdf221efe1f9eed9U,
  0xe2fbff14e50e1106U, 0xebfbe102e4faedfaU, 0x15fbdfe513bfd602U, 0xdc02308381bbf1a0U,
  0x4dbef1092ec2008U, 0xcb230b0e9222fcc8U, 0x2201f10f13d7d705U, 0xd70027aaa7c5ebcfU,
  0x5e60701b9d41500U, 0xe31a1512c218ffbdU, 0x401f3f70dfa08f2U, 0xffea17f8fc03eaf1U,
  0xe8040c1201fe0100U, 0xfef7f7f8eef7ecfeU, 0xd06f3fe0dfbe708U, 0xf60122ddcff8d2d4U,
  0xf8fcf90ee8ed0900U, 0xf812fcfcdbf80b11U, 0x120e04160bf6e60dU, 0xf70e11f9f306d7e8U,
  0x30900f801fa080cU, 0xf3070612f90c1313U, 0x9c4e1cb3b1bf903U, 0xafe0003f6effb18U,
  0x21f8fbd6eeeef715U, 0xcd06dd2cf8d20004U, 0xcf10935f90be921U, 0x1629f8fdfff6e9dfU,
  0xf608fcecee1624c1U, 0x370dea24f3f71622U, 0x36160b4ddee41d47U, 0xbff08d90600eae1U,
  0xc02e1f41ec14f9abU, 0x40d04312f943f918U, 0xbbdabdc310c03dcU, 0x8fef5131cde2b1eU,
  0x2bf6fef8eedddb19U, 0xb81fcf0504b203dcU, 0xbea0d926432de3c9U, 0xd01d327d1dc2a39U,
  0x3cc2dcaffcfc2814U, 0x4229404f08116daU, 0xcdb2a360418e219U, 0xf18ee1306ebf7e0U,
  0x9f306fc021d06deU, 0x1301fbfcf6f412fbU, 0x3cfad02608e309feU, 0x9150bee250ff512U,
  0x103ff73ffaf5c6f7U, 0x16291eec1cfb1700U, 0xbfbc94dd170bf7b6U, 0xaf8f30002e4471eU,
  0xce0f3e0f3dff753U, 0x9b1bca0a0e93f8cdU, 0xb8e7e126f823c9c6U, 0x908f927fdf5230bU,
  0xffd4fedf1314242bU, 0xf414cf0bffac15d3U, 0xf9ecf60905fa14ffU, 0xfb02f107fef20400U,
  0xfb97fb56f6fff6e4U, 0x120ee4a7ffef040dU, 0xceffc0ef8110406U, 0xf90decfbfbec02f1U,
  0xf0fef7fff903080dU, 0xd402d600fee502f9U, 0x1b01ff07051cf006U, 0xfefcf6ecf7fe01f7U,
  0xf652f39f0506fa0aU, 0xb1f4ee6df8eff8f8U, 0x4efdf25f6e721f9U, 0x9f2e60300ea1703U,
  0xee85005eecfceed4U, 0x20f5e281f0e9ed19U, 0x8f8f81efd050802U, 0xfa02f0fef6f10703U,
  0xe8f9f21ffe06fff9U, 0xdcfcd6edf7eff90bU, 0xf411100d0611e006U, 0x7f8f6ea000afafcU,
  0xfa5ef2a00bfe0814U, 0xa502e352f9faf60dU, 0x8f4f220f5eb13e9U, 0xcf7fc03ffeb10efU,
  0xf6b1fd37f6fff3dfU, 0x13ece2bcf3f4eb01U, 0x9fc051d010406f2U, 0x2f70108fd0603ffU,
  0xf2fcf30df6fffbfeU, 0xe3f7e8f5f0feec00U, 0xed0d07130a0bec08U, 0x4faf5fc0009fdf2U,
  0xee58f4b602080402U, 0xb907e93ef1f6f221U, 0xfbf8f7fcf6080fffU, 0x801090a0508fb07U,
  0xf60603fa0803f502U, 0x1f7f9f10ef40105U, 0x10af801f3fdf1U, 0xedfb000b111dedeeU,
  0xfaf30d0a0b010103U, 0x20300fe04fef10dU, 0x1e08020010c8fbfaU, 0xcbeb0ab38ed40fc1U,
  0x1ef3f302bee91bffU, 0xf916de1ab60be9ddU, 0xf7f7f5fbf4040e0bU, 0x300080d0706f70bU,
  0xf20807fd1001f607U, 0x3f1f9ea0af50208U, 0xf40006f102f901f2U, 0xec00040e1619ddf0U,
  0xf4f30d051800fe03U, 0xfe0704ef07f8fd09U, 0xa160b0115b4f9f1U, 0xadeb13a181d102afU,
  0x1bf5f203ade316f7U, 0xf623f114a713e7e6U, 0xfa00fffff808070cU, 0xfe0300060306fbfdU,
  0x905fd0a02ff03U, 0x2f6fdf70bfe0705U, 0xf5ff09030604070bU, 0xff0b020d140fe603U,
  0xfa0503021c05f900U, 0x60207f00cff0a09U, 0xc110c1410d3fe02U, 0xccf906d5ceebfad6U,
  0xf0efa02d9f803f3U, 0xfc10030ed40df9f5U, 0xb080e060f1aff0cU, 0x3a19010d040ed9daU,
  0x50cb2ef16261eecU, 0x111e08ec010a1beeU, 0xf91308f9f917fff3U, 0x4317f2f71ae2f3beU,
  0x5019fe2fb2e0113U, 0x227eed3080620d0U, 0xe2040d04e108fedfU, 0x37fee6fa00d40ce2U,
  0xf400d0d8f644ee25U, 0xf50604f5e0e4f6c4U, 0x702f8feff05d715U, 0x490d09fbf10de5bbU,
  0xf306ba09111a1fd9U, 0xc170107f90c17e9U, 0xfb1214f5f406ff17U, 0x4b20ebedf0eaed8eU,
  0xf2088110ec2af9f5U, 0x1327f2f6f30d25b9U, 0xe70d370cdb1506f5U, 0x3a0af0eef6dcffc1U,
  0xf705c2fdf240ec21U, 0x82e22f1d6f708d3U, 0xf706f0ebf7fae007U, 0x1b05020af310e9d7U,
  0xe6f8c60a130b08f5U, 0xf70afd15090f06e1U, 0xfe0309fef602fa11U, 0x2306f3f1ed07ef96U,
  0xf2f5b41400ff03ecU, 0x71cf702ec0b16d3U, 0xf2f41913ee041afeU, 0x1d0602e4f5f1f3d8U,
  0xeefdd104ff0ff6fbU, 0x8261513ec0b07e6U, 0x1af327d227fc02f8U, 0x4caa18dce7bd6df9U,
  0x1c0730fdc2f32958U, 0xc6f4032dacf1abf2U, 0x18eff80cff1fe6c8U, 0x4dc738e01bf509beU,
  0x13d325fddcdbfe23U, 0xe7f7fbd9cdf4dab9U, 0xdadccc210327ecd0U, 0x3d09200b272492eaU,
  0xd2e104ee1ccae00cU, 0xe6db00e903f00502U, 0xecef0fd2401203c1U, 0x72a73eb3c49774d8U,
  0x20ed4b068cdb362bU, 0xc1ff3e0282fb81c0U, 0x1e5dc2ee210bac9U, 0x7fad51d9fae4f2bcU,
  0xd7d53a06d6a204eeU, 0xf0e14fe2b5ffbfc5U, 0xf0e0c723d805d4dfU, 0x3c0c1c0f1721afebU,
  0xab040ef20db3d7e4U, 0xf9d81e0702181001U, 0xe7f8d217170709d0U, 0x3ada32e8c2be1bf1U,
  0xee5260ec5c713c6U, 0xeffb41ebd206daceU, 0x6ecdf35d6f4eceaU, 0x52e51f1a10f2cff1U,
  0xbf002b0400b7dfaeU, 0xfbd45f01e9fed8f3U, 0xe0fd0416ddece323U, 0x200011e0b21df09U,
  0xd32914ff04f4d0eeU, 0x7d928340f250828U, 0x3407fa0cdcc3e6e7U, 0xa0ff01303010010U,
  0x815e70bfbf1daebU, 0xf603e905f9e809e3U, 0x407ddebbff1e8U, 0xfc1de20b16f9f625U,
  0x3202dcf907fbc122U, 0x92cd50f1ff216e3U, 0xc9f304c6fcf909e8U, 0xfb08edf604fc101eU,
  0x2fe3f4fd04f5f53cU, 0x724d8fc14f601e8U, 0x1bf50139d3c6f8e4U, 0xfe15f1fd0302f1fdU,
  0xb0be217f3eab1c4U, 0x16f9f6f4f3ea1004U, 0x50102d1abe3ecU, 0xea2ad7f000fceb09U,
  0x2ffcd2f2fce98103U, 0x126ec2213f129fbU, 0xedfaf1c7e7dd05feU, 0xed17d8fa07f1080dU,
  0x3ef5e6fa070db032U, 0x21ce11913fa0ffcU, 0x12edf349e7d91809U, 0xf60a01ea020302f2U,
  0x90cf83803fbddbcU, 0x1ef716f9f9070916U, 0xf6fb0418c2cceb05U, 0xe918e2f50806e8f7U,
  0x29f4ed0216e3b2eaU, 0xfe09150a0bf31b1aU, 0xea0608dde2f9f100U, 0xf411e7170a11f7fcU,
  0x22f0eafa1d09c218U, 0xf51502180b0c1512U, 0x4f1f438dddc5114U, 0xed0cf1e8f40233efU,
  0xf53dcc12f95be707U, 0xf0bdd4fd15ec0507U, 0xffeaf2e1e61881c4U, 0x19ed420212f6f810U,
  0xebe447cc11c44df1U, 0xeefc1001d91cf500U, 0x11f3fed0450e0fddU, 0x2ef4122d0b03d7e6U,
  0x9f84827c5cefa1cU, 0x1514440df5eff2f5U, 0x3ce0edfd61aa3e7U, 0x5f938f11bee0b29U,
  0xf91419d20ee239e1U, 0xebeefecdd90fffdeU, 0x2ad7c5bf4e4fa7c5U, 0x68e63560df00addcU,
  0xf5dc7e1df08830ebU, 0x15143b38cf03ec04U, 0xe2c8c31a2ef2670aU, 0x51de5b3eac631dfU,
  0xfd0ef703b016c419U, 0xec050e0fe1ae0cddU, 0x1dfed4ef0f289dd3U, 0x26033828f70de6e1U,
  0xebe22e0013df26e9U, 0x13161ddc160804f9U, 0x6f6b80f27e078d5U, 0x1af8f7d4fefc19b4U,
  0xebf322d90ecc0dU, 0xf7dc050a01bdecdcU, 0xbbe1d218e7ef1211U, 0xf417ee05fbfd321bU,
  0xe4ff06ce171a0afbU, 0xe609e0c603f02f0dU, 0xdddf61cedf6db04U, 0xdff414ec0cf41717U,
  0xfc071209f9e911f7U, 0x4e80df1ef18eff7U, 0x1edfe6e8460003fcU, 0x2ff90c27e2f5f9edU,
  0xfbfb1921e3d71304U, 0xe121223ece70003U, 0xdef1fdf7092109U, 0x412faef06f506f0U,
  0x10fde6fbef09f112U, 0xfc08f8eff8e6ffe7U, 0x15e9c6ff1b09e6f9U, 0x34fe1220effcfdf9U,
  0xf4f42a1102ec05fbU, 0x7fb0f0c03f8fe03U, 0xe3cbbc030a013ef4U, 0x1410fee205e025feU,
  0xf1f08102d7f3ec18U, 0xf1eae705e6a8fad9U, 0xf3d3e005df08ed06U, 0xafefff5fa1212U,
  0x14ff13f3ff0a02f7U, 0xf606f1f2fbfa1504U, 0xfffef1001f0a1f00U, 0x190aff0701f700dcU,
  0xf8fce700f70afefbU, 0xfd01fdfa00ec02eeU, 0xe1eef415cdfb0002U, 0xf412f8f202fb161dU,
  0x312e3fdfe06fdU, 0x103f9dbf5f51009U, 0xfefff3fdf305ed0dU, 0xfe06fc03f7010504U,
  0x50c0b06fefb04f5U, 0xfa09fd08fb020206U, 0xf7f902f1f706faedU, 0x4f703141f1ff003U,
  0xdd020dfe1df8ec00U, 0x3fe03ed12f0f205U, 0xf09020106d0020cU, 0xe9db06be89d726d6U,
  0x18f7f011a6f01f03U, 0xeb1de51eb216dfe7U, 0x100f805ec0f0808U, 0xfa0bf1041808eb08U,
  0x500ef041b03f9f2U, 0x70905f121f10b03U, 0xf4e8f3f7f80afdf0U, 0xfefa032c2d23e214U,
  0xd30609fd2df5e302U, 0x7f503e129e6f00cU, 0x11d1a050fc606fbU, 0xd8d20cb581c826c6U,
  0x1ff600089aee1e01U, 0xe624f021a116ceeeU, 0xf8fdf40bed090c00U, 0xfe04ed090d0eec07U,
  0x9f9ebfa1efce9f5U, 0xa0505fa1cec0d0dU, 0xeeedf3fa020cfc02U, 0x405fc262118e61bU,
  0xe501fc0621faf30aU, 0xbf801e920f3fa0fU, 0x81a1a0e16d1fcf9U, 0xe0f306cfb5c712e5U,
  0x12fe0b08b9fa1506U, 0xf718f61fc413e9edU, 0xfbfb04f40405fcU, 0x104f4140b0ef701U,
  0xfffbf7fd07faf0feU, 0xaf5fd000cef0006U, 0xf4071a0b0902f306U, 0xda0905000af40cU,
  0x5fa070f11fc05f6U, 0xd0a0003060de50bU, 0xfafbfff80507f002U, 0xbae030f02100110U,
  0xfaf9090a1bfc0503U, 0x4f80106fefcc60eU, 0x6f8f3f902fefc05U, 0x8acff01fa0f15fdU,
  0xfc000a021500fb05U, 0xfdf30306f3ffc703U, 0xfbf909fc08fdf703U, 0x5c4010309ff0906U,
  0x6fc0b050d0e0df7U, 0x505ff010307bc03U, 0xfdeef2f4030300faU, 0x1181010915021108U,
  0xfefc0cfc0709fd08U, 0xf204fffff88403U, 0x3f2f5000b01fff9U, 0xda302ff0e060a09U,
  0x80108fbfe03f902U, 0x2ff0bfcfbfab002U, 0xfc04f8ff00f90007U, 0x7e6fdf810fe14f9U,
  0x6070800f70f0bfdU, 0x4fefefffffccff4U, 0xfcf7f6f8010500fbU, 0x17c2ff0414f70f07U,
  0xa0506f9ef0d0206U, 0x8fe04f5fdf3b2f9U, 0x206ff050c03f8fdU, 0x12e005ff0cf9fb06U,
  0xc0902fcef0404feU, 0xa0b07f8fefadffcU, 0xcff00390197eb0d9U, 0x1f062923feecd0f5U,
  0x10d705cc09c7414eU, 0xe135e204e2ee08deU, 0xf8f4fef52e69f4f3U, 0xd151bf703dae8U,
  0x211211ad4e1b607U, 0x100f26ffe9f506f4U, 0x180508330804141cU, 0xeb0eebeae4ee11efU,
  0x101afd1cdd05dfeaU, 0x24eefefff8150bffU, 0xfebd3ee3b2af2c7U, 0x230139faf201cfe1U,
  0xdf31b08e7d9e204U, 0x1d15fa04e1ef0300U, 0xff4de4520ac39e9U, 0xf314bec9e2dc20f3U,
  0xfd2e1437c7209bdaU, 0x22ef161bf6f71614U, 0x408fd29e48e1711U, 0xec1bc4ecf4ec1609U,
  0xd0dd5ed0c20f8faU, 0x2f1de190ff2230dU, 0x1bfdd61b1a932dd9U, 0xea00cdcc0301fbfcU,
  0xfff072cff0ec9e2U, 0x1f3fd0600fa0a21U, 0xdeebe917f78127e4U, 0xe515a906fbf6241fU,
  0xedfbe2db1b23ee08U, 0xdee5c24721db1e07U, 0xf71117f6e416e1eaU, 0xfed200e17f40bU,
  0xddadfc7360b1221U, 0xf5f6e80e0ddd1afeU, 0x12d7efe7e4bf2dd0U, 0xc9beeec7d7c360aeU,
  0xf6f54201c614034eU, 0xaddefe2abcedb2c7U, 0x30ccdac8ecb322e8U, 0xb0cbf38983917d99U,
  0x1cfb22fa91101143U, 0xb7f5eb299418be81U, 0x38f7eee200cd0802U, 0xdaf2efd0cbc531e4U,
  0x2af5f6f9d70919f8U, 0xf104f315d90ef2ceU, 0x5f1e307010a06b5U, 0x2e235ef0f0913dfU,
  0xd5fa3d00ffdff0f6U, 0xe1dd0801effbd0ddU, 0xfc1ee6eb192300daU, 0xe1f33233137d412U,
  0x6e5eff418f213f2U, 0x290aeff53211262dU, 0xf920fd0a0a15ff06U, 0xfc25ff301e31cd10U,
  0x7efbdee1b0b13feU, 0x2221f1f52df72642U, 0xff150a161912def5U, 0x2c15381e2319b92aU,
  0xf10302fc23dbeccfU, 0x160a08df26fd2015U, 0xbb251c13331ff2faU, 0x232e352b2c32883cU,
  0xbf5e5f130e202e6U, 0x282208d52e063850U, 0xc90f13120d040106U, 0xf9130507ff08cf27U,
  0xef26dd020608f604U, 0xaf8e2fff4112eU, 0xf1284ee829d0c82cU, 0xe1f2fab6ccf01ccdU,
  0x37e1e9f2bedb4541U, 0xc55cfff8cd21e7e4U, 0xf53c55d932ccb234U, 0xd1d9e381a2c42ec2U,
  0x5ae8ede5bcc34e05U, 0xc070092cc327dcbaU, 0x1d312efffeedde0dU, 0xe3f2eac2e1c90be1U,
  0x40fffbfcd9d01ccbU, 0x9380b05d418f4dbU, 0xe3284c0815e4f30dU, 0xebcdfbc6ef0319deU,
  0x2ee20af602fb1f12U, 0xe73805e3e223c8f4U, 0xd74e612c10d8ec16U, 0xc1aec6d2d3ff2ae5U,
  0x61dc09e0fb021e0bU, 0x33f0af3eb0bc7dfU, 0xf12c2a18eceff917U, 0xd8e3bbf5e6f014ffU,
  0x3f05fee006ff15ecU, 0x190e09fa0efaf8f2U, 0x27f1e820ea1351ecU, 0x6e6fe203321e70fU,
  0xd207190b262dd5f9U, 0x1bda0f0f2b1ad2eaU, 0x12f7fa3408186500U, 0xf2e5f42f5b53dd24U,
  0xdc1e0cee3c5ab9f2U, 0x36c520124311dff4U, 0x1deff91ef50439f4U, 0xf3fae02c3144d826U,
  0xea16f3f5293dd408U, 0x1fd90bfe2ee1000dU, 0xc9ddfad91e2325d3U, 0x130f151a120f0a37U,
  0x24fae9a1101cff7fU, 0xdc0f98da31e21705U, 0xd1daf40d2b3518c4U, 0x1d1c230d141d0f26U,
  0x130a08b70608e56dU, 0xd903d2f411dc17fbU, 0xcf90832191806e8U, 0x15ff21fd05ffecfbU,
  0xe9170afeeae1e40bU, 0xe624f4dc05ff02U, 0xe1dae2ce2c2704d7U, 0x22111e030f0f1318U,
  0x121d05beff2e0859U, 0xe70fd70a1cdc11feU, 0xe9e1ebf42f1defccU, 0x111f280311011001U,
  0x102109e0ec15f841U, 0xe416fb1d08ed1002U, 0xa04023415ededfaU, 0xfd091aecefe806efU,
  0xeb180614e1f0ecf3U, 0xbf61d09e70dfb0cU, 0xf8faebdd0110fae4U, 0x13fb0ffffefb0608U,
  0xf22119effb17ff2eU, 0xe2f9fa12f8dc010aU, 0xf103f5f9f9f6f5efU, 0xf10411f101f408f1U,
  0x81c1408fb27fc13U, 0x201140bf8040a16U, 0xbf5f91affe909ffU, 0xe507f9eeeef705f8U,
  0xed16071ff60cf3dfU, 0x14ef230cf3fd0507U, 0x60500001089U, 0x2e80000163cU,
  0x45f000010d8U, 0xfffff7e00000171cU, 0x8b8000027c0U, 0xdd700001321U,
  0x54afffff380U, 0x56e00000c6dU, 0x180500001b70U, 0x26a6fffffed1U,
  0xfffffacb00001a90U, 0x90c00002152U, 0x21000009ffU, 0xfffffebdfffff9d6U,
  0x12bffffff846U, 0xb5bffffea6dU, 0xfffffd5900000db2U, 0x1cb800003ae6U,
  0x32800000f38U, 0x3c300001f81U, 0x55c0000013eU, 0xfffff35700000751U,
  0xe680000179dU, 0xfffff19a00000e2eU, 0x3c09000010d3U, 0xa13fffff89aU,
  0xddf000011ddU, 0x12a100002447U, 0x3f0000062cU, 0x26200000cb5U,
  0xa2e0000004aU, 0xffffebd6ffffff3aU, 0xfe23140fdf07d808U, 0xefcdf309fd001501U,
  0x150402042c1b10d4U, 0xb60ae510f203dc0aU, 0x161005031f291108U, 0xec6119f11711f3ddU,
  0x200ad9f4e4e4f9faU, 0xe074701fee21a0eU, 0x38220d02faf71110U, 0x2ff1a37eaeb37d4U,
  0xeb31d253ff0112U, 0xfdf3eeecf7faeb1fU, 0xc511da07ee10dc1dU, 0x40f6d3000e1e1c10U,
  0x25082f1af0e3da15U, 0x16150209d0f2faefU, 0xc91d21d7cacfccf6U, 0x20a2c7c913cebd9eU,
  0xb21aebb329b2b508U, 0xdeb304fcf2e2dbc4U, 0xd805a80be40e2cb8U, 0x1dfbf32100d104dbU,
  0xf116e9f8d5cbcc2aU, 0xeee9d3c4e1caf4bfU, 0x1e090515dff3f622U, 0xffccebfae6e7f629U,
  0xd17fcfa092014d1U, 0xeff2fdfdfffae3fcU, 0xf71405ec2a360d01U, 0xed1b0df2091ff4e9U,
  0xfcfce808f5dc0ae9U, 0x2a052903ebc80904U, 0x35e70b31f1c90613U, 0x18ca0a17e1e207e1U,
  0x9ff9f1ee47eacc29U, 0xf3ce09080004cf08U, 0xcffee0de1f53e1e6U, 0x17e0ffffda002d1bU,
  0x171222fb06140295U, 0x100410f9b32e0cfbU, 0xe6e033e6b6f081e9U, 0xeeb6a1e7c20abb9cU,
  0xa614efbef1d6b711U, 0xe8a914f7e1ccd9daU, 0xd9d9b1fcf1c4e0c2U, 0xc2f4d8f1cdd504ebU,
  0xa9d4ca02d3bccbc7U, 0xc0cf03d7ecea0de4U, 0x1adaf30cefc2fedbU, 0x15dbe9dbc7dd0623U,
  0x332bef041cfb09eaU, 0xd3feebf71a07000cU, 0x24a05ec1634e40cU, 0xe611fe10fd2d05fcU,
  0xe8edcd27dbdc1afbU, 0x1d02fc310ab8fa14U, 0x2bf60620dbdc1fe4U, 0x9180e33e1de1d1eU,
  0xe2e73ef414d0df08U, 0x4cb09f902dde323U, 0xf61afd01fa40dae9U, 0x3ff8ebffe2336023U,
  0x1ff12309b0f6f5U, 0x2c21fa2bf90b3d14U, 0xe6cd06e3cdb4c6e1U, 0xe4beb8e9cff8d88dU,
  0xc7f9f1b2c2b0a3faU, 0xb798f1fae7d7cbf2U, 0xd3cbc8bc0da402caU, 0xb0cdd7cfe8d1e1e4U,
  0xc1029b10b0d1c6baU, 0xdedabcf1facda7d7U, 0x19dbee00e401fffcU, 0xd10f111c0f0402ffU,
  0xf300ff21dcfce521U, 0xf8fe2607f70e1ae1U, 0x130510e2e509f4faU, 0xbebfdeeeb122b02U,
  0xfb33fe0c061dd0f3U, 0x16deed1eddfd1d20U, 0xf3e5cef0d2e9f912U, 0xccd6e4140feaea02U,
  0xebf5e8060d1a0412U, 0xe9031d17ed0500e1U, 0x170a0106e239f701U, 0x7e6fbd1d2fa4311U,
  0xcf27d513fbfbdacdU, 0x1e8f820042a2327U, 0xf5eadc16f2e4f300U, 0xcddac71a16f7e6e0U,
  0xfde2f7fe0d18f82dU, 0x3f00228ecfc0e08U, 0x524091afa1b12f2U, 0x21e41bebe9f61cf1U,
  0xee06fb16e808ffd5U, 0xeb13f40e10011811U, 0xd0a0dd112ff01e7U, 0xaf070edb22ffdff9U,
  0xbef8050ff9ed1901U, 0xc1311080b0ef5f6U, 0x3c17f5d9e30ed2fbU, 0xfb0efbf12de61d17U,
  0xe611fa082c04e80dU, 0xce2d81c00081b33U, 0xf212e9f2fd16f2ddU, 0x99feecdd1cf4cbfeU,
  0xcffb1304fada0c0aU, 0x12181827c6f4f5e2U, 0x3210fabff518e426U, 0x160a03c430af3420U,
  0xf622ea1a14f40a25U, 0xf801b40e32182431U, 0x115f7f11207fed6U, 0xcdefd90120eadee7U,
  0xcae00e03fff0fef8U, 0xfe02f13adaef191dU, 0x260803effc24f70bU, 0x20fc03f42eca1e0aU,
  0xf919f332f3f91809U, 0xf319caf817fb1a29U, 0x131f9f3feb9f9c2U, 0xd9051adc01e8ce03U,
  0xc812e5e5d8c52cf9U, 0xd040fd0e0eded816U, 0x29250fefed3bd1fcU, 0xd001d6ea00cbf1fcU,
  0x11ddeebff0cfb05U, 0xf7e8c305f3fc192fU, 0xe219faf8eab3dbccU, 0xb3fef1b72ddeeef2U,
  0xc0f2d0e2fac31804U, 0xd1460e2aeccef523U, 0x3a2ae5d50b3ec51eU, 0xecf7e5db0da8090aU,
  0x1c29edf3e6fef504U, 0xeef581ef1403273eU, 0xfafcf015ddb3d6d0U, 0xfe10b2d52d01f31eU,
  0xc2f5d6da0eee04c7U, 0xf01ff12ff8b20a3aU, 0x15f100e60d2f0b04U, 0xf1eebffe08de1603U,
  0xf615f91ceeee10e0U, 0x20f9fda2300190cU, 0xfce1f7ca01df00fbU, 0x19071cf7e13130d6U,
  0xd7d512b11ff3dc02U, 0xf9ef09ee0c0df1f5U, 0x1208cd4cd8ea3ef3U, 0xfc45ef05f004fb08U,
  0xd7ecf50618190c16U, 0xf1171802020b0a02U, 0x32e9e2d51ede0ff8U, 0x17243113cb2b38feU,
  0x96dd20af12250418U, 0xdfbe0f010cf9f8f5U, 0x17efaf37dcc84ddeU, 0xf351ea14d9dee90fU,
  0xced0f6f5250c1e0eU, 0x200304fccdfa180dU, 0x37ecdbdc15f4fffbU, 0x29063810eb0c0ef2U,
  0xdbf334dee324192dU, 0xf4cceafb000503f2U, 0x7f1d729eae02513U, 0xf514ed1805e1fd0dU,
  0xffd5ffd020180c16U, 0x39ee0507eee30420U, 0xfaf3f9cb03f2ef0aU, 0x2ff1600df0a2ed3U,
  0xd0dce8ad12f4c626U, 0xd4e845d0020ceb0eU, 0x17f2dd53e9dc27f0U, 0xfe5d18e1f1f51102U,
  0xd7fad0330c032708U, 0x3ff00904f2f80612U, 0x1ad6e8bc25f70612U, 0x2d0c4108b81b34c7U,
  0xb0d1f6bdfc21bf31U, 0xcecc0ed20415daf0U, 0x6d6cf4dd8bd35cbU, 0xe95af0ebe5cc0b20U,
  0xe1d8c741251a1c22U, 0x74f8f615dc260210U, 0x31d6eedb1dfbf7f7U, 0x360e3d1fbc051ad0U,
  0xc1e422e3e438d024U, 0xe4cbfef6f91410e7U, 0x6d2e428dadf2506U, 0xe910d609d7e4fd0fU,
  0x16f3f8f4fb1a04f3U, 0x44f0ed09e3070d02U, 0x3fe09fa0205fef9U, 0xd190b09f9ff1ce9U,
  0xe6d1c0e610f5e01aU, 0x5d115f3e4fdf300U, 0xed19e828fddc0c0cU, 0xf23813eb28e82002U,
  0xfa0afd300dfb0d09U, 0x4c15f5e50d14f6fdU, 0x1ef30bdf25021614U, 0x2c261a1bddf504d7U,
  0xc8c0cfe018fdd963U, 0xe8c0feded805fff0U, 0xf3120a0b05c612eeU, 0xec4d0bd90cf91d21U,
  0xe00bdb2c23280618U, 0x7f11ece20345fb0cU, 0x10f003cb1a000322U, 0x330b010dc60005e2U,
  0xdbe91cec0c2ced23U, 0xfbdbfaeff20902fdU, 0xcfa11fe13e1160bU, 0xf6fd14f00108f61bU,
  0x101cd817fb0df404U, 0x4bfcfd07ef411401U, 0x3eee94dfeff1612U, 0xeaf20df00de4100eU,
  0xeff8f5e5f90b1350U, 0x1e0b1e01ead70205U, 0xf70ce71a10e6ffebU, 0xff0315f31ac3f50dU,
  0x91e100a060e101eU, 0x2e01e501340bf2f6U, 0xf6ee03a205c90846U, 0x3bd4ef29a9120ac0U,
  0xd2cb163cdc42f817U, 0xf9daccee210c10e2U, 0x5e3f5ffcc1b4c0bU, 0xe6e9dd21cd3bfbe5U,
  0xe218b804e3e1dbafU, 0xece1190bd1b701faU, 0x2f2fa2d0104f5faU, 0xe8e7f9fbf1ec0b24U,
  0xf5f9c0f109200b2aU, 0xbfc1a13ec0a0700U, 0xf9f9f92029fc1402U, 0xc0c11050ae7e0feU,
  0x10e5062703f11403U, 0x1bfae5f61c120a06U, 0xf5edfc50f1fe16ffU, 0xf1f50dfe0aed11ebU,
  0xfce0ffefd603143aU, 0x13ff0dfff7e0070bU, 0xe8fdf116fae0fcfaU, 0x9000ef231a11011U,
  0xd2d0fe6fa112107U, 0x10f6040d2606f3f9U, 0xeefbfd8108dbf808U, 0x44ede91bb7f00ff0U,
  0xd9ee07402d3ad529U, 0xcfaacdaf1181cd0U, 0xe0be0afbc0303202U, 0x2d4f62fa162f5eeU,
  0xe35a93ffefe7d7d4U, 0xacf416e5bfc2eceaU, 0xeafaef410524f913U, 0xd3f1fa09f6fd0b19U,
  0xf41edbf2e81b2324U, 0xf7071c02f811160dU, 0x4deef082a00f604U, 0xf31f16f01511f003U,
  0x108fc3a0ffb0efbU, 0x901f4f11006fc08U, 0xfae1ef1201f4d9eaU, 0x5f3eb05fffcfdfeU,
  0xfceedc0bd70f04e6U, 0xf9fae01400ee0efeU, 0xf9f712eef5e90906U, 0xaeef0e814d010dfU,
  0x17051ff80e110f27U, 0x10e903fb0517ebf8U, 0xdffefceadadab80eU, 0x42d2dbfaede30b15U,
  0xfcfdf50556fac0d3U, 0x1ef9c8f1f4eb07fdU, 0xe3fcdf140816d7faU, 0x2ef60322db24dcc2U,
  0xee1fcdd1c7fa14dbU, 0xd9050ee2ebcce2efU, 0xe0f5f01e0bfd0a14U, 0xdd00fafe06f6f8f4U,
  0xf71414ffdade16f3U, 0xf9f31be803d9f61cU, 0x4f4e8071afbe404U, 0xfb0505e4f8eafd0eU,
  0x1907f1dbf8f7fbU, 0xe3f704010bffeffbU, 0xf7fb1101f9060915U, 0x1001e20803ef070aU,
  0xfefe0116f9fb0201U, 0xfc1003f4f30212e0U, 0x81e100602feef1eU, 0xfd0b090708fc0beeU,
  0xa0d05fef6f40303U, 0x1af916fd03f80303U, 0x7f707f7fd10f90aU, 0x8f6b0090bfe0e06U,
  0xfa02051ce806f2f0U, 0xf11501fbeb0621c3U, 0x81d0811f802ea14U, 0x90a1204fd00efU,
  0x31004f0e9fd06ffU, 0x16ff1de9f6ef0d08U, 0x12090b07180af2fbU, 0x600ba101908f8f5U,
  0x503fc10f310f1f4U, 0x2120500f0ff18d4U, 0x802f80af5f3f80dU, 0x408f7092200eefdU,
  0x5f700f9fa0b060bU, 0xf060be1f5fb0308U, 0xffe9060a090307efU, 0x1209cb0607f31303U,
  0xf503fc0ce8ff0afdU, 0xef1305f4f7f61fceU, 0xc1f0f1003fae212U, 0xf6081500060cffe4U,
  0x14f8fb01f2faf70aU, 0x4fd11d9f1f50803U, 0xaf10a001f0b07f5U, 0x9f9810d07f613fbU,
  0xf806030ee2fcf2fcU, 0xf81300f1e70030c3U, 0x182d0223edfed52eU, 0xf8ff15200501ece4U,
  0x11f8f3eed5f6ef13U, 0xff1dcae6f3140bU, 0x10f6fc001c14f608U, 0x4faad030ff7ffebU,
  0xbff0a07d505e7feU, 0x313faf3e60220bdU, 0xa16ff27ecf9ee12U, 0xf70a06180df8f3fbU,
  0x13f4f6fbe307f90fU, 0x2fc0fd5f1ea1105U, 0x7f3fb110bfa08ddU, 0xc06dc01020e07f8U,
  0xee0408ff01fe0006U, 0xef11ff02fbf117d0U, 0x82205fb05f6f30cU, 0xfbfb01fbfd070df2U,
  0x1bec0808f404ec00U, 0xec0500d9ff040901U, 0x5e804001c020fe6U, 0xe06ab0d040315f3U,
  0xfcf71b06f6f9020eU, 0xf10df7f6f30023cdU, 0x1b310c11edf1e633U, 0xff0e0dec0203dcU,
  0xcecf6feebf9e90eU, 0xef0501d4eb0c0909U, 0x6f7ffff1815fd08U, 0xfffeca0601f705f4U,
  0xdfb17f7f4faf70bU, 0xf60efdf5f70517d4U, 0x16160a1ef0faea0eU, 0x11b1312faf8fef8U,
  0xfa0203feecfcf516U, 0xfaf606ffeeff160dU, 0xfefe08dc0c2ffde5U, 0x15f53018fecb2dedU,
  0xa18e1f904f11fdeU, 0xedfe18da00f81a04U, 0xfd23eb0ae70fe2feU, 0xfe9f22eb7dddd08U,
  0xf118f9f431e61644U, 0x617f7e7ed0203f7U, 0xede1dfdeff31d9f4U, 0x1f2162feecd3fd1U,
  0xf4e4c6c0f5f212d1U, 0xddf3fffee70018f6U, 0xec0ae4330be802feU, 0xfb3a1236ecc5caeeU,
  0x101ce0b18e93455U, 0x291a26fad8fcf202U, 0x1412e5fb031ab3dcU, 0xeb08f1ec0cbd27efU,
  0xcfffd8a3dc19f0f3U, 0xcefee13cd6090221U, 0xfb21ef273b0e24eaU, 0xd545fc220ebae6eeU,
  0x2f8f2350ced3e16U, 0x2828f509ec1b19f6U, 0xcf017c8f540f203U, 0x31f503380ff62ed4U,
  0x1f15cc37fbdb1ec9U, 0x1adfeed8220f0afaU, 0xd15e506cf13e1edU, 0xf50acc24a8f4c4dfU,
  0xdd18e6c53ce90c1eU, 0x25f619fe0ce3fb0fU, 0x11befea41c4103cdU, 0x17e6156308e65c92U,
  0xf92bb1ec02c727e7U, 0x25ca12fb2634fce7U, 0xb0dc148b40a0702U, 0x95ec87fc9e9b403U,
  0xb7fddec844d4fc50U, 0x28fe1a0aeecb4040U, 0x1cbce5e5192cd5d1U, 0xeef6031236e12fadU,
  0xdc0bcdd004151ff9U, 0xfae9e931cd4706fdU, 0x1103db511802201aU, 0xee6903500ec1cc09U,
  0xfeddeb191be20e37U, 0x2b0000f8def62c15U, 0xce611ea0e1e0514U, 0x2af6ecfe140c16ceU,
  0x1a08d72ed9fef3f0U, 0x10e5f2ee191bf2eeU, 0x13f0e909cb1f0be7U, 0x8ebd515b119ccc8U,
  0xb539d1daed04fff0U, 0x3d72cf9fad02d0fU, 0x14ee21dffd19f4dcU, 0x30f60a040c131abbU,
  0x1101f31d36e21309U, 0xfe1f00e2b2e12deU, 0x11e6f13be421f901U, 0x316c650a71bc7eaU,
  0xb92edad108ffd905U, 0xeff30cfff8bf3c2cU, 0x8c0fbfd0c0be7f3U, 0xef01ffe228fc2ad2U,
  0xf717e5d30aea1813U, 0xedf0052fee260309U, 0x2101094a4d1cfc0dU, 0xf63fcb20f601f807U,
  0x1effb06eff6ee17U, 0xefeef7fee9070fU, 0x120105ff0005f918U, 0x1fe810eeeffee8f1U,
  0xc29f8110110fedaU, 0xed0cceece9200eeeU, 0xeef8f7fffd0f1afcU, 0xd7d7fa02e4fcd41eU,
  0xf81314df0a0b0313U, 0xecf606e307e201f6U, 0x4f30cf8270ef21fU, 0x17fb11efe911ffe5U,
  0xa48f31dee2cebe3U, 0xcd09dde7f03804e5U, 0xf60100fef7041c0eU, 0xb7dfff0ddf0be03aU,
  0xf30813d52e14ffe9U, 0xcdf205eaebbc15fcU, 0xf7e0fd01180dfe0bU, 0x61107f7fe01f505U,
  0xf622ee01eb21fd0bU, 0xb1100ebf12707feU, 0x6ff052108010208U, 0xd4eff8150f15e904U,
  0xfb05f51f0e04faU, 0xee0e07ec07d7e4f2U, 0x19ecef1fe20ce7fbU, 0x2c0deedd01120605U,
  0x14f5c2fb0120eac1U, 0xf017c402f5fa0af6U, 0xe6fa241b03ea27eeU, 0xe614efe41bfbc102U,
  0x21e119e4f22b0704U, 0x9faead1eadffaf0U, 0xe9d8f807ddfbd825U, 0x310de9cf0d25050cU,
  0xff21cc010007bae2U, 0xda0fdce7f5f7b9f5U, 0x203141bf6fa0ad8U, 0xc4110ee11315c3f0U,
  0x3c4ffb9042003faU, 0xfe0120dcda84fc07U, 0xe0dbfcfffd0cf10bU, 0x152407eafcf6f509U,
  0xf227dfeef3dbee1aU, 0xe81c03efef02bdfdU, 0x11120c1a0fffe1f3U, 0xd1e916f22f03e903U,
  0xf30ae9dc05000913U, 0xcfb17f602b5ed23U, 0xf9d7ef26cbe8cfffU, 0x2219cce402201624U,
  0xe6f1aa060909d7c5U, 0x2f10020cf2d9e90aU, 0xec0c241b04020be3U, 0x3340bee2d09dbb9U,
  0x27d3fbf1022b1611U, 0x1df3f5f4e8d1dfe3U, 0xdebdf0fc88d89f1eU, 0x1c05d5e2062c0e2aU,
  0xd0f7a30620eacbdeU, 0x1efbfdf4f7c28a23U, 0x815202c01fff3b2U, 0xe7320edc36feddc6U,
  0x14bae4dacd1b1afbU, 0x17d822f6c681fb11U, 0xe7eef017d8eee219U, 0xa31e7ea04120f12U,
  0xfdeffdf5c60e18U, 0x80efd02ede39617U, 0x71a1e151c15eaf2U, 0xf0101cfe38e70a01U,
  0xfc0df4efd00e1017U, 0x16021312e8b21729U, 0xe4060507de0eeaf9U, 0x526f107dde7fc0bU,
  0x1cd80a050ff802e7U, 0x15060c0d10eff30aU, 0xf108fa13111cdaedU, 0xfe7f1f1fd0bfccaU,
  0x4ffe003d8ce08fbU, 0x15f706fe04feecf3U, 0xc3050909bdf0a0f5U, 0xfefd810ae3cdfe1dU,
  0x13bfe21618c6f8e2U, 0x15fdfb1508f1d316U, 0xf615fe102e4ccdd4U, 0x1bf0f5f2f417ddb7U,
  0x8f6a107adb011ffU, 0x2ef11eecd8ebd1ecU, 0xc7160705dffcbd0dU, 0xf7f69a1402ddfd09U,
  0xf8d4ec0506d1fbf5U, 0x1010f4130ff2d910U, 0xfa0a10143440ebbfU, 0x160bf1e31427f1efU,
  0xfbfcccfadfd11f0cU, 0x310a1bfedfdde7f6U, 0xed03f70af1f9f1ecU, 0xf418e80901f5f114U,
  0xaf6080614f705fdU, 0x812030cfc0df00cU, 0xb1b04f90e23defbU, 0x6fdfa09f1faf8edU,
  0x6fdf914f4d319f7U, 0xfcf502f103f4fb01U, 0xdb0df001d100c6fdU, 0x3fdbfedf1f41012U,
  0x12ea150a23c6f7f0U, 0xc12fef71104e805U, 0x526f8f82925bcf8U, 0xdf90bfdce16efe6U,
  0x7f7d705e9c020f7U, 0x60d130de102f10cU, 0xee17080f0503dcf8U, 0xf2fde9ebf8f80c01U,
  0xdf0130117bf0af8U, 0x1160dfafa0deb09U, 0x1c1deffd311ad905U, 0xf8111dfaff0a1416U,
  0xf404020211fb0feeU, 0x12121917f7f40a24U, 0xdfff007ef0715U, 0xf2130df916e502eaU,
  0xfd0beef71bfd0326U, 0xff1cfffdff05fffcU, 0x7f8f806fe14fe14U, 0xd0fe5f6fd000205U,
  0xf204f60ff4ef0bfbU, 0x607071106f3100cU, 0x141ce8e605001e0bU, 0x80a12e305f908deU,
  0x1615f9e71b05f418U, 0x12109f8fff60d07U, 0x11e7ff080409ff06U, 0xfd02ddfffbf9f10cU,
  0xee0dff0f0cff04f0U, 0xd05f91606f71110U, 0x140bf2010ef41808U, 0xfd021af20f0612e4U,
  0x416eede0a13ef0fU, 0x520fcf7fdf812fdU, 0x16e901fd02fb0914U, 0x3fbf1f8f70cfc11U,
  0xe60325091b1a01edU, 0xdff080c030e06U, 0xd0cea02f2fe07ffU, 0xeffc0e0003fe00e9U,
  0x4eaf3e4fcfb0e1fU, 0xa1212fbebf9fcf7U, 0xf9100a0a020af800U, 0xc04fafc1bf5020bU,
  0xf308fef80007f213U, 0xe5faf4fa0a0c020cU, 0x1016fa2412c7171dU, 0x1ac8414e221bfb03U,
  0x35fddd2dd91ae6e3U, 0xf7ad0fdd5eef1481U, 0xbfbe4e9d1f72d0eU, 0xeee2d922eefe0407U,
  0xc9dfe9e1e511dbcfU, 0xe6d3fe1fcef70608U, 0x102f80c18f1fef0U, 0x130b0b12f6fe03U,
  0xf109fcfdec0f0e13U, 0x1dff100f9f008fdU, 0x3e200f90000fe0bU, 0x40efa121a080216U,
  0xfdf50016f30a02f8U, 0x7f5db09fa07f500U, 0x90b0102fb06f505U, 0xf9f507e7020509deU,
  0x8020de801f60818U, 0x6072201e900f212U, 0x1015f203f6fbe3fcU, 0xbf516031de70e14U,
  0x4ff11f3140b020eU, 0xf6f8ff05fe021a1dU, 0x15f031f508ebfadaU, 0xfcda0f17ef1fe40cU,
  0xff61648efe706eeU, 0xeddb06f642f90be1U, 0x18e8eed5f70c0012U, 0xebd1e7fbba14090aU,
  0xf3efeee2050dfacfU, 0x8e2de13d7ea040aU, 0x3f6050bfd16ece8U, 0xff02f8f30106fc0dU,
  0xed0b03e704f60804U, 0x513f819f0010313U, 0xfcf2fcf30d02eb00U, 0x82107001e07010cU,
  0x18fc170f10080902U, 0xdfdec02f9fb0405U, 0xfe030701fe0100fcU, 0xff0704fa030800feU,
  0xe131ef1020208fdU, 0x6fa1705f7f2f909U, 0x80ffb00f0fff7faU, 0xbf2060803e90f00U,
  0x309120d0501f608U, 0xfe0a04fd00100e0dU, 0xfaf12306ef0eeff2U, 0x312e9ffec08fbffU,
  0xf6052e1809f01fe9U, 0xfe01f7030ff4f71fU, 0x20b06ec100cf1f1U, 0x5eb08dce6100ce3U,
  0xf00f6fcfb020e08U, 0x1a04fdfcf40102f6U, 0xffff04ffe90d02feU, 0xf80d07ff0403fd10U,
  0xfe0af7e509ff0007U, 0x90eff12ed0ef206U, 0x20806fcff0302f0U, 0xd09fe000afefcfbU,
  0x12031b0601fffc11U, 0xc0904030504fd01U, 0x1f280e140a2b09e4U, 0xe845dde7ff15e6dfU,
  0xa0f0612cafb1600U, 0xe229de36e3e003f3U, 0xddf049ea2b311707U, 0xdd26d6d9df09f0fbU,
  0x361022ee16250bf1U, 0xf8faf8d3cefae4ebU, 0x2017f8071a0e1306U, 0x1f7ff10092102e1U,
  0x40ee2f3f626f805U, 0x2170315050905fbU, 0xf5f91df8f6131112U, 0xf318eb160611f8fbU,
  0x280520181b1909ffU, 0xdefef0d8df10f6fcU, 0xe0eff0e060a0c04U, 0xaf004010e0afbe6U,
  0x1400e5f5fa0dea00U, 0x2f403050f0706f3U, 0x60804130500090cU, 0xa1bfa0f10fdfdfaU,
  0x19100b1009080009U, 0x4060af8f7040a07U, 0x2b3d351b131700e2U, 0xab7ff8d309f2d619U,
  0x8fd0418cefe35f8U, 0xf022c73dbace0dfbU, 0xe1fd74f827461d07U, 0xe606efdfee1adc08U,
  0x362c0cca0a391712U, 0x9eadccb0dd80209U, 0x2b2cfbfa19000f05U, 0xfc0718071320f90aU,
  0xfef60ce12bfb0dU, 0x607ed1f00f307f5U, 0xe7d945cd17252919U, 0xed0fdd0f0816fd03U,
  0x22f60a000d371b12U, 0xf9e8efc4ccf0ff08U, 0xb0eff110802ff0bU, 0x8f91512130201f4U,
  0x9f2f6f3d81df4f5U, 0xffd14f5120d02f8U, 0xfafcf3f107001c0dU, 0x118f61701fcf305U,
  0xf6fc04ff00fffeffU, 0xf1fcf7f4f2071302U, 0xe423e10111506f9U, 0xea380cf605eaf838U,
  0x6f21417ecff2413U, 0x21cdd1adbdced08U, 0xfc0349fef82d0bf9U, 0x1e8f7fb130be909U,
  0x221609d80c27131cU, 0x35e8e1e519f21f15U, 0x12150ef9110416ffU, 0x202180e1910fcffU,
  0xe9f7f803db19fd1aU, 0x3f2f60afae909feU, 0xe5d930d3160c1a0bU, 0xfa03ec1cf8fffd0aU,
  0xa0bf6f80b2d0e15U, 0x34e5eaf5dbf01701U, 0x901fe0f0dfef8U, 0x8fa0c0d05f905f7U,
  0xf1fdf1faf80bf4ffU, 0xf0f2fafbfaf70001U, 0xecf104ffff0e0908U, 0xfe07f612edf9f50aU,
  0xf70908eb000bf5f6U, 0x1f01f7f4fcfffef5U, 0x1d8fda10fd601f0U, 0x2dfb0f2eccfb14d5U,
  0xd7f91a32e514e727U, 0x18dfdeee0a7f10ceU, 0xf2d702faaa2e2701U, 0x16d1ea5cc63bf304U,
  0xcdf8dde507f6b2f6U, 0xbfd5f6f7c8dcfffeU, 0xf6f904e51601dadfU, 0xfdfed601e1ff0911U,
  0xd211e8140513070cU, 0xfcf4fcf9f23d050aU, 0x5eaeb1505260003U, 0xf50c2019dd4b0701U,
  0xf9d9d72c08f1041aU, 0xd106f5e9fdf90904U, 0x1fe0913f101ef00U, 0xe2f3ddf0fe0506feU,
  0xf90b07f505f70af4U, 0xfc1b1c0efde4f31dU, 0x1c09f10619ea01f6U, 0xfd2417cb0eee0cebU,
  0xf1f100f2fc280dU, 0xc03090a07000e07U, 0xf0107c400d0f2efU, 0x53fbf0f6e901f510U,
  0xcff317143401b006U, 0xc0db704073c1ddeU, 0xded2f0fbe5120208U, 0x26e8fe42be26fafeU,
  0x308e1eaf804ecfaU, 0xe506e0e9dceaf3ecU, 0xf21505110100e61aU, 0x15f8efe1f202ff2fU,
  0xd812f6ee3d06f1f6U, 0x617ecf7fc11f81aU, 0xf4ede123141ee7fbU, 0x51b0affeb490bf9U,
  0x4f8de0feefaf209U, 0xfa0305fcfefffff4U, 0x506f514ed07fbfdU, 0xe3fcebec1410fdf7U,
  0xfb01fe02f9fb0aecU, 0xfd10fe0bf6e0fe1cU, 0x90deb111400fef3U, 0xfe1df2da0e0502f1U,
  0x7e60303f4f91906U, 0xdf5070df90904fdU, 0x61604ff05eaf7ffU, 0x29dfe8f7120f011fU,
  0xf0effcfd1413e4edU, 0x1501cf0f0bfe0c0fU, 0xf6f4fcf418fd03ffU, 0xc17080cf804efe9U,
  0xff01eaf0fffe0afbU, 0xbff00f3fafb05f8U, 0xf818f43502fdf605U, 0x10f0fcfc120807f7U,
  0xe8090ef11d06f8fdU, 0xf91208ff03d7fb18U, 0x2f41022fffee8U, 0x81e07fcfa07f0f3U,
  0xfcf216fcff0ff6f3U, 0xbfd08fb040202efU, 0xfaf7f7fdf606f6faU, 0xe8f8fef20701f9f6U,
  0xbfcfffa08fef2U, 0xf6fe070603eaf613U, 0xefefef3f90e03f5U, 0xf204f3eafe03fff8U,
  0xfdf2fd0b05fbf402U, 0xfdf7f7f707fcefU, 0xfb0215210d12f10aU, 0xc04f9f805f7df11U,
  0x2d05e5ef05fd0ae2U, 0xf7e62be905e8edf9U, 0x5000ce2071806ffU, 0xf6e201f31100ff03U,
  0x409ec07050308e0U, 0xfd02fd090c09f9fdU, 0x7fb0a211003e423U, 0x1bff11061aedd51dU,
  0x5100d5f3f6efe8e6U, 0xfbed23f517d9f5e5U, 0x8f8f2fc190409fdU, 0xedcaefea13f9e307U,
  0x1f7e5d418f9f7c4U, 0xf202f9f404dff1f7U, 0x1403fb13fa030415U, 0x1106160e28f1d103U,
  0x2ef5e5edfb01ececU, 0xf301fd1602ebfe01U, 0x4f50507ff08e5U, 0xf0e304f10ff5f207U,
  0x40f11f520f9f3deU, 0xfafaf8fefef6f4f7U, 0xad721070627f507U, 0x16f2050c05e9d704U,
  0x3a23e3fafaf7eca6U, 0xbee21ca1908f4e5U, 0x6f509fadf070a02U, 0xfde7e30afb0dddffU,
  0xbf003c80d03faf0U, 0xbe709fd01f0f8fcU, 0x1fa911fa112eea17U, 0x2efe072633dec7fbU,
  0x7226c407eaffc681U, 0x6ef1dd42b0110e8U, 0x9fafe28dbe904eeU, 0x4bfc80d2b12b508U,
  0xdce602a017efebdeU, 0x5defce405b2ede9U, 0x21d608f80f10fa2fU, 0x221210172bf8bbefU,
  0x371ae606f20bcebeU, 0xf3fd04100224efU, 0x905f71bdee109f2U, 0xf6cfe9031405d90bU,
  0xe3ff08ea0ae701e2U, 0xf1fae907d8e5e9U, 0x1fcf0be00820f8f6U, 0x8f4ff0af9f7e8e9U,
  0x151ce006edf9f4caU, 0x100803ef0f2906e3U, 0xf9ee0704caf000f4U, 0x1004000cc804d2faU,
  0x1ad608c104fcde06U, 0x170106ed0105f6f6U, 0x28af18ce0836f6e0U, 0x1a06f80102f4dde1U,
  0x312bdd0ef1fec9abU, 0x13040cdd18251be6U, 0xf00fe0eace50af6U, 0x23e40305fa17d501U,
  0xfdec17b01dfed7eeU, 0x9e9f8f407daf5f6U, 0xbda0cc81524fcffU, 0x1c07f20d00ebdfe7U,
  0x111aec0efff3d9d9U, 0x411f7e5121e19f0U, 0x12fff616a1e8f500U, 0xde3f8f4f71de706U,
  0xe71710f00afb02efU, 0xfff40cf611e6ecf6U, 0xfc0ffc020400152bU, 0xef0180a0c1300f9U,
  0xfc121000e40bfc19U, 0x1cec01f00b0bfef4U, 0x404f01404e6ef00U, 0xfe01f905fcf6060aU,
  0xafc05ee0e0607f5U, 0x508080bfb0e0d07U, 0xe0d090916011bfdU, 0x13effc09e1132006U,
  0x6d20a0efb00ee28U, 0x1000f0f6280deef1U, 0xc100c29e8ebffe8U, 0x2dc0b17090af0f6U,
  0xdce40438f4ff10ecU, 0x8e919ecf419f8f8U, 0x8b5b3f2b43afee3U, 0xa41f03e3112195e9U,
  0x231856e60d1ac3e1U, 0x81d22bccae07cabcU, 0xfbfbf8de0ce4bcf6U, 0xce5d4d4041424f1U,
  0x1b3d1a38efe7df0eU, 0xc2dccdbd16348ca8U, 0x70ff7020b040713U, 0x17f61004f606f8f5U,
  0xf1062707b3ff0420U, 0x3eef002000204f3U, 0x704ed01fdf2ee05U, 0x1f60dfbf5fe0d10U,
  0xee905f0080b0de9U, 0xfafa08f6fdfb1806U, 0xa030802011c17efU, 0x10f5fcf5d725100bU,
  0xfdef031a000f1523U, 0x1ffde8f93004f8f2U, 0x4f3081ef6f5d1fcU, 0xbd50a04120e1200U,
  0x2f9fe2c0b0201eaU, 0x9e322f4011e0c04U, 0xffe6e1e4a62917f5U, 0xb81516e00c3ebff6U,
  0x200245f2ecf8d6eaU, 0xb2c31fe3b4f8dde6U, 0x14eaf2bffbeed7feU, 0xd9efedd201001ff3U,
  0x1c41091eefeede05U, 0xe0de0df00335c99bU, 0x606f6f9090a02fbU, 0x90af2fde5fe01f0U,
  0xf3f6230ed40210f9U, 0xe7f7eafe00010dfaU, 0x2f6060cf5020804U, 0xfed705f5eff20d04U,
  0xf7ebff0a08f90d03U, 0x804fee9fbf300f5U, 0xf4fff904f12503c3U, 0x80c08fbea161001U,
  0xf21c0e1300062003U, 0x1cfcebe31bf6fcf4U, 0x1ee0219deecd109U, 0xcfbdfe407021f0bU,
  0x1415042c0fe6eefbU, 0x6fe05ee072c09f9U, 0xc6b5dc961710beU, 0xc828ecd1ef2cc6dcU,
  0x2bf833eef5d4eed7U, 0x9ab0f8d6f6d5deddU, 0xe1ccfccff9e0b3f3U, 0xd0d2b3c4e2f414e2U,
  0x23270525d8ebd002U, 0xf1ea8bfc0441afa9U, 0xf3fce7eb35241a0aU, 0x4dee1dd04061b1aU,
  0x1710b9d72917ebdeU, 0xdd9f4cc000708e0U, 0x1912aef201ddf230U, 0x29ec06e3ee060318U,
  0x23f921f40205e1e2U, 0x1a0341101a0ae2dcU, 0xb01f0f82820270aU, 0xbe9f8e0f2171415U,
  0xf613e0e01913f4eeU, 0xce9e3c9101723ebU, 0xff208a0918d7f113U, 0x280502e5ecfdfb0dU,
  0x45d136ea0e01e8c2U, 0x1809390a03ebf9dfU, 0x1ffdebf61c1d1312U, 0x14f309e518220bf3U,
  0xe421dfe512e8f602U, 0x12e2d3bc030206e7U, 0xffe9b11f4e5e832U, 0x26fe1edcea061208U,
  0x44d132170d01ede2U, 0x151030fbf9eeece0U, 0xe9ed2031d50603feU, 0xf82dc105fceb11d3U,
  0x25d315ff1ac22d10U, 0x50f613d8013105f0U, 0xed1515ff4735e9e2U, 0x90c12f1144501d3U,
  0xfc0cadfaa2e41304U, 0x7f054ea1de3d8b5U, 0xdefc2830bb1afbfbU, 0xef1d810b05ed1ae3U,
  0x22b51c0130c52509U, 0x510304e00c2ff6f0U, 0xe0250c0e2a36a7caU, 0x1f1f0cfff7432babU,
  0x1ef5bfeac0a32f16U, 0xfff551f118d8ccdaU, 0xfefa1a20cd0df31cU, 0xe20fe6201cfd1fd0U,
  0x3dac2c032bed0927U, 0x3e02f4eb0c26f7f9U, 0xc72903fd1122ede0U, 0x110b08f90b30f88cU,
  0xf2f2fbdac70322U, 0xfdfa55ee0ed4dfd4U, 0xc4ed12cdf4dece0bU, 0x12c5caedd6ede7d9U,
  0x1fcfdc180bedf4f8U, 0x2cfce2170ffcd7f0U, 0xcdbd28e30de6d6dfU, 0x1e7f8f514fbd3fcU,
  0xe6eeaee9ca02cbf6U, 0x2dd8da0d05e1ddc7U, 0xa71eefcfd7f9c911U, 0xffbbd30aa8ecfafbU,
  0x208bf51c19afe929U, 0x36f6f3d81203d2ecU, 0xc3c321fe01d9c18eU, 0xee5effa1af5e5c9U,
  0xebf59ae40c00c9eeU, 0x1ef3fb2a18c3e3ebU, 0xde151bd6ee01e11eU, 0x7ea0a10cb0deef3U,
  0x459cfa1c18b6fc01U, 0x37df08eb13f8a60aU, 0xc2bf0edff6e1c4c2U, 0xfede1ff01fe9eeb8U,
  0x300ede635d6cfebU, 0x24e712161ee7ec2aU, 0xf3f4e1ef0be0261dU, 0x516fafa01ebf70eU,
  0xd5ccc00f0431f519U, 0x21050c17fbf718f7U, 0xdbe4e10018092623U, 0xd2b15f8082610feU,
  0xfc021f45e5fcecf8U, 0xee07fef5194eeff3U, 0xcee6c801bbe72128U, 0xe515d0cefb1ffd3cU,
  0xce4d032264c05deU, 0x36030937f8fe81f7U, 0xcfe4bf22431b22f1U, 0x182a32bc111933c3U,
  0xde2afb3d9cf308e9U, 0xfa0a0f13165fbfefU, 0xeb09f6f3fa032a2cU, 0xfa1000faf612fa10U,
  0xf6f10ff20cde08U, 0x131801140b04cbfaU, 0xdcf3cd0b072a14d3U, 0x16092fedec391ffdU,
  0xfe38ff1ff7ffecfaU, 0xff1b14fb0d3cdad6U, 0xfbe8ecf812e41e2aU, 0xf9f9fe0bed07200bU,
  0xf8eee104ed1e0324U, 0x4140efd03ec1809U, 0xe4e6e20911190b0dU, 0xfc2b28fd03260b04U,
  0xfefa074df0f2ea20U, 0x9fd0c0a033a0600U, 0xdddcc30cd3ba1949U, 0xe8f9d812df330f47U,
  0xebc3d5171d4f0602U, 0x220a2926fedbde18U, 0xcef5d6133d0630ceU, 0xfc2424a52cff26d8U,
  0x407f14fa4f121e9U, 0x25ef4723f933d903U, 0xd3e9d6f7f7d11431U, 0xed06ef11fb39092bU,
  0x5e7f9240835f714U, 0x12150c26fbe6abf4U, 0xe5f1d7072c281ecdU, 0x24fd20cd220b3be8U,
  0xe12de61bd20009f9U, 0x18ef34f9db31ea01U, 0x110b06f90b070bf5U, 0xf3ea0226d60227e5U,
  0xe231f4e5f800fd1fU, 0xcf90ef912ea0ef6U, 0xfffdf7f9100a05f7U, 0xf0020f1f0617ff00U,
  0xfe2e70b0a0af222U, 0xd05100ffd0b0e15U, 0xfceeec0907ea020aU, 0xeec8100bfc0b1fe5U,
  0xc51bd2e6082cfd2dU, 0x11e62b06f8ed0f13U, 0xfb05e6e40b0d25edU, 0xcf1aeb0e0de61b0fU,
  0xfb00f1320d0bfa0aU, 0x1ddc362ada170d26U, 0xf4e6e4ecffcf0307U, 0xe105f606f11c1803U,
  0xfbf71200fe24131aU, 0xbf22bfd050fe00cU, 0x14fdf0e42a081113U, 0xfb2cfe081bd21efcU,
  0xeb17ef11f702ef02U, 0x29da340ee40c2820U, 0x40cfbf90619f808U, 0x205ebf4fb1b1f09U,
  0xfaf1f701170e1507U, 0x1906f2d9f80718ebU, 0xecf3f208eaeae4f0U, 0x25eaf1fff8f9fc02U,
  0x4ff071406fdebffU, 0xc09fcff1813f3f1U, 0xf4c807f210fc1d08U, 0x4fcf3e3e4ee28f8U,
  0xf3fcf8fd1b03f2efU, 0x3c19109f0e0f37e4U, 0xe5f0d210e0b3fe35U, 0x2ceb0513df01df03U,
  0x2e5ef10ffe6d01eU, 0x91e1efc2c31c7c8U, 0xeecff7f9150e210aU, 0xec0ee1eb11fb12fbU,
  0xfe0bfbfb2ffe1203U, 0x2f1d00defa080403U, 0xe305fa0704d6f10cU, 0x9f302210b00d9fdU,
  0xef0fb2f06e6d61eU, 0x1d210eee4322cad2U, 0xf6f6edfdff02fb0cU, 0x501ec0207092a0dU,
  0xe1e9b51819042af9U, 0x18f814d900f309f1U, 0xe9fee2100eeae80aU, 0x13f41007f9dcf7fcU,
  0xefeef717f0f2fdf0U, 0x12001d050d0cf0e9U, 0xe3c0fdf90cfa03daU, 0xf7ffc3e8ede7160dU,
  0xeef8b3051df3fad1U, 0x3f05378705e32ce0U, 0xd6fa950a04a2c826U, 0x36013f06f8e4e5e8U,
  0x5c1e12be1bfe7feU, 0xfe372cca393196a9U, 0xd9ccdee914131bf8U, 0xef1ebef300e0020cU,
  0x50d010523dc01f5U, 0x370a1881fecb25f5U, 0xf205cf23169ece1aU, 0x33f51f0f0404ebeeU,
  0xf6e0e929f9c0d00dU, 0xfd2d16df3e27a9bbU, 0xf8f1ddf811110c0dU, 0x6f500fa27080126U,
  0xf6fcc216080d2a05U, 0xdf424fef3f808f0U, 0xda0bf30611f1fafbU, 0xfa0d1af21ede0506U,
  0xfdf5001f01fb09fbU, 0x23fa1a04170400f0U, 0xf9e5e2e2f2eb02f9U, 0xee04dcf315f00a21U,
  0xff0acb08040922f4U, 0x241128dcfbf427efU, 0xd715a4161ca3fe11U, 0xc09210afed3f5f0U,
  0xf2d2f301f7ea0804U, 0xfb1a1be62225d0deU, 0xe8f5e5f408f219e5U, 0xe16e6d8ef040110U,
  0x15fff2ff21e400fcU, 0x300a13b6f9f52b12U, 0xebe4d7031daad619U, 0x321c1b05effaebf2U,
  0xe7e4f82505e3e504U, 0xfb2014e42a22d5ecU, 0xff1bcc2ec3191a2aU, 0xf2f600f53a4f9d12U,
  0x10d1170cff36f300U, 0x1f08da20f8ef051fU, 0xe0a140b617304dfeU, 0x5f5eae32aee21eeU,
  0xf21e1007e62ce31cU, 0xf602100132e4def8U, 0xd9290b06cb280f49U, 0x10ea12160a4dc2feU,
  0x5fd03f2f561f117U, 0xfceccdf50516b715U, 0x5ce46aafc2f5222U, 0xe7c6091824f04cfdU,
  0xf225141af41ef50fU, 0x7063f561ceb1c0eU, 0xdb1420e3c926f925U, 0x6caff0ffb1d17f5U,
  0x80716efe205f805U, 0xe4e1ff140607c025U, 0x131e0b00ce37f20bU, 0xcfef05400eec23f9U,
  0x70d1308fb022713U, 0xe00e4222f9eaeff2U, 0xd20ae038b636ff6eU, 0xd1f1e5f8291da808U,
  0x269bf11209281912U, 0x2ffbba06e3cfedccU, 0x81bd1bdef80c54f7U, 0xf3e0f8c000f845c5U,
  0xe9eecd03a1fef5faU, 0xe509551234e6eadeU, 0xc9ff0d0fbf31176dU, 0x1ce1071f0d53a0ffU,
  0xf9dee9f8e95ef71cU, 0xf1eea5ea16bebcd6U, 0xb3bb33c8f6f3580aU, 0xfabb03db0a125bc6U,
  0xfa08eefde20fd1e3U, 0xffd4f11080bdcf3U, 0xfb1418f9b020fd65U, 0x22dff84c153c06f2U,
  0xfaf0e8d2f532fe21U, 0xebd8f326f1e20cU, 0xec0202e9c8ff1ce7U, 0xcdb2538ec0920e5U,
  0x1efa0e04edea2718U, 0x7304409e0fadcdeU, 0xd2050920f21dfb47U, 0x5ffd7ec03e5effcU,
  0x22c9fe0e3605291dU, 0x3e08cee7e0dcfef1U, 0xa5fcf501f0e53fe2U, 0xfff09ccf3df25ffU,
  0xcbe0d129b0d7f8dfU, 0xdf102d193209eee9U, 0xd6e00d1bdbe3173fU, 0x18ebe714e824cefdU,
  0xe5c6eef8273af83fU, 0xf06b00602e5ffedU, 0xb4dd1efa0ff223f1U, 0x14e001daec0d2ce8U,
  0xe7dbfc09c10ef1d2U, 0xf3ff31d52120e5e2U, 0xed0e0502eafa0e3eU, 0x17f6f127e340fef9U,
  0xdade00f60c25060bU, 0x1511e40912f1fdf5U, 0xdce20bfdfbee2906U, 0x26e52d000f030ad1U,
  0x2ffe110ec051409U, 0xff0f2bebf40ad5e3U, 0xf51805b707f71223U, 0xf20b11f8f0f8d9e8U,
  0xe2fe19eebc0cc627U, 0xdf04e307f016fef6U, 0x1f0917f7be031012U, 0xcd020018ddee44ffU,
  0xcf30e1e00f03edeeU, 0xfff020af6162533U, 0x290b12bf12f4101cU, 0x221011eed1fd5e9U,
  0xb2e41a2e933bba23U, 0xd4f5c11f210df0eaU, 0xf92ae5d50e3919U, 0xbb05f119c3005201U,
  0xf625dcdffd28e3beU, 0x14ee1502bbde3624U, 0x18f5e9dd24060916U, 0x50dfb08e215efffU,
  0xd4ecf913ce1eda0aU, 0xa04f00305070801U, 0x2e80ded02020012U, 0xeaea1605ce082efbU,
  0xb0306f7f920f1fdU, 0x12001406e8fd2110U, 0xfe09dbdc19d5fc04U, 0xfbe02400fe11a4ebU,
  0xd2f518eaaf00ca59U, 0xc5f5d114e207edf6U, 0x1b2510f5ea1f0615U, 0x96e3eb1c0bd26126U,
  0xfc4ee0ca0822f0d5U, 0xbc50209d304483bU, 0x25fbd9e02eddf8f7U, 0xdf9020fe82f8ddeU,
  0x9ade2232813aab50U, 0xb201a73bf507f00aU, 0x8fc22e3ff493b17U, 0x90f3e216ea1a6512U,
  0x834d6d40a38cfb0U, 0x22af0a148fe44732U, 0x2af0d9f31d0209edU, 0x5fd0509e31cd9fdU,
  0xeef0020abe27df1fU, 0xeaf5e614f909f909U, 0x3edfef11918220eU, 0xdd1715fede0324fcU,
  0x1d03e7ed0c2cf2f3U, 0x1df10a22f00a1314U, 0x13ecf90e17dff9ebU, 0xdf5f8e01a0addf4U,
  0xf0fc22d5d2f3eb33U, 0xd80ff407e2ecf6f7U, 0x40e02f00f0ee501U, 0xe0ed00111adb1f25U,
  0x122d00ff1108f7f5U, 0x7e2e20be90b1519U, 0x10f2d92e07f9e1e9U, 0xae6feda0f20cfe9U,
  0xd5f01fdde103be2dU, 0xd11ff60ff6fd010cU, 0xa00e9fe2914e9fbU, 0xe8e9160bfc194131U,
  0x131fdef32303e1eeU, 0xee9ee24d9072613U, 0x3dadc1c020105ecU, 0xff0a08f60918ecf8U,
  0xfd0d22e1e709ed0dU, 0xe604070800f8f8f0U, 0x1309e706230d080dU, 0xef15fdf804111cfeU,
  0x706ddf40a13e7fbU, 0xfcfaf018f9160003U, 0x5fce5de0feb0deaU, 0x23150d0cece5f8e7U,
  0x5fc290508fd0a29U, 0x300bd2dafd0d20f0U, 0xe2e51fffb6f31a13U, 0xedcef0ef002e81cU,
  0xfe15f9d20afdc5edU, 0xf3f911f0ecf0f7e9U, 0x5e9e4c420f124eeU, 0x3c1c090ccce501edU,
  0xe90609ff19180029U, 0x4218c1b8e9192debU, 0xcec01efe94081a1aU, 0x22c0fa22ab3ae11cU,
  0xed3adffa1f01a10dU, 0xe9fa22e5f1f3e5d0U, 0xfa03ecef22f91ef6U, 0x110c0313d6effefcU,
  0xe5feeaf205161119U, 0x130fe1d5fd1818f2U, 0xecd31502cc031613U, 0xfef5f717e4350702U,
  0xed17ebfd18edcd18U, 0x70f1be9f0f206f1U, 0xf8eed813fff4ef10U, 0x26f1d1f3fbeaf801U,
  0xfaf9bff51716cedfU, 0x23fbcdef01e925f1U, 0xd10feef318071b13U, 0x370801f7020be1cfU,
  0x50bffecfaf723fcU, 0x4f01df9f708d4d9U, 0xe100d623ecf2d63aU, 0x27d6d6f1fadef41cU,
  0xef0481fd3dfdaee0U, 0x1b03d0b9faea2ce0U, 0xbd25ba082f0ae409U, 0x31000d04f914d0c2U,
  0xe730ebe3c4fe2aebU, 0x80a32f60406cbd8U, 0xee08d720fdfef629U, 0x7f4faf5f6ecf609U,
  0xf70ce2ed10d1e9e9U, 0xffff8ae08dff8feU, 0xf71cc00725f8eb07U, 0xfc1306fefc08e6f1U,
  0xf118f8e8e5fa14e5U, 0xcff32fb08f3efebU, 0xf5f3ec2af9fefffeU, 0x10505f513ee000fU,
  0x1626ea0426100feeU, 0xde00fa0ffdfc090aU, 0x70efbfe1cfcff07U, 0xee0ef0011501f5f1U,
  0xf2100704f0eb2314U, 0xfde40210020bf002U, 0xe9f3e93c02e9f519U, 0xf5fc07f81e0bf523U,
  0x1f2fe00c1b0e0109U, 0xde081629fed50312U, 0x2005ddff3ede050dU, 0xd115f6e63dd8ecefU,
  0xed1b350cf7ea22f1U, 0xadd2010141b0c12U, 0xf4f1fc19faedfe07U, 0xe51201f809fbf800U,
  0x6110d0bedf11302U, 0xff9120703d3f40bU, 0x1e06efed2aecfa0fU, 0xea1ffff811e5f5ffU,
  0xf20e261004fa0ffcU, 0x3ea0b0f070dff0bU, 0x19fd155229f61202U, 0xe270a1845f601c5U,
  0xeddfec49db27f5d1U, 0xd4e324052b010401U, 0x18e1fe0c07bc1002U, 0xf202fdd1edfbfc03U,
  0x2adc18012411f9ccU, 0x1d1efb1febfd1104U, 0xede1d6eb03e11011U, 0xca54fef8eebdd6d5U,
  0xc4dfd020d71c2d1aU, 0x11fdf8f9e8f4f601U, 0xede246fa01f6f71cU, 0xe1df290104fcf012U,
  0xfb24300e1908eef7U, 0x2af7e90a0401fc0eU, 0xe0c7fdc2f7c0e04aU, 0xe8220004c5ac0ef5U,
  0xe30404f50ef9452bU, 0xe4f737cdcd23e30dU, 0x1a025c09c713e5faU, 0xf7de221efbf71e1bU,
  0xcd47f7f3f4e71324U, 0x3e91a332fe24235U, 0xf1f3284f2cfe0619U, 0xc1d163c15e6e108U,
  0xf8fe49a6e6e306U, 0xd6f027d34d06e5e9U, 0x430705e3ccd5f812U, 0xcdd3efd0d32e3224U,
  0xe8f12bca0d17f9d8U, 0x2b0ae756fddf1227U, 0x97f9dbbefbe3f37eU, 0xb24b1402ce8ef62eU,
  0xb206b6e3ebcc3e2dU, 0xf8162381e700a4f7U, 0x56271bf4af33c431U, 0xbde04a1c1ae55d35U,
  0x8147ee0c13c3280cU, 0xcee126151dc4078U, 0xc405f7d9eeb5c655U, 0xa80e02e3cfb50aeaU,
  0xf8e90117d83a0fU, 0xe30c4cded1249e10U, 0x2e4f34efff31efd9U, 0xf7e5341dfbef3118U,
  0xad4cb60ae5cc4212U, 0xc6d24c3b2fcf5e42U, 0xe311120b15f9fdeeU, 0x7201942edcfe24cU,
  0x3f42446b9dae015U, 0xf5fa24d43b10e8e8U, 0x2adf0e04d7eeda06U, 0xf5d126ebf2211d0dU,
  0xe51c12d01005fbcdU, 0x3effff3d02c62f25U, 0xb7fff8bdeddb2f4eU, 0xc41536f2c2c0f8fcU,
  0xe9ee00ecd9b21a13U, 0x30229c7f20db0eeU, 0x2e1e02d7ae32c414U, 0xd21017242ff73733U,
  0x932af7051cdaf4faU, 0xbeb295136d54348U, 0xdc1c050aeafaf10fU, 0xd9f91fea0aee0bdeU,
  0xf0d010c0febfbe7U, 0xf1eb1c090114c400U, 0x1a4403e70412fde6U, 0x200131f080c1afaU,
  0xbf1af73606dc1a0eU, 0xd8ff160e2d091f14U, 0xbd4481008f5fcf0U, 0x14770801d30ffe18U,
  0xeadb26fb2107c2eeU, 0xe9f319ea00daebf7U, 0xf914880711af0ee7U, 0xdfff030d0a2f161dU,
  0xfb110bf7030ee9d2U, 0xe42b1209ffdf18f2U, 0x7d551fe09f00bf2U, 0xa6f10fedd1f0108U,
  0xefc027f93610c4fcU, 0xdeeb0bda08f203ebU, 0xfa119cfa06a71bf3U, 0xf10a01fa1b1bf90dU,
  0xf1eb06f6fafcc9d6U, 0xd71a2507f6fd00e0U, 0x7db3eff0bf419f8U, 0x273c0f07d8210b03U,
  0xfeb401f7151fc807U, 0xdaff0dec070310efU, 0xec0881f703ab2bf9U, 0xde0802181517e810U,
  0xfad30a0500f3e2dbU, 0xe32d1b08d30001e8U, 0x902010d0709ef08U, 0x12fc0c12e90d000eU,
  0x6141510e5faf308U, 0xddfc06fd24ebebf5U, 0x1a021917f10cf8f0U, 0xe91b05f21c120e0fU,
  0xf4110e01f907fffeU, 0x22281c1903e10c13U, 0x16001905fcf6e8f2U, 0x19f70f00ef1701fdU,
  0x11d270ddafbed16U, 0xd0f9fa031df1faebU, 0x1df5160e08f4efe5U, 0xe41e05e42714fd0eU,
  0xc0519f4fd05ffecU, 0x91b120ef5f00a07U, 0x1aff0ff80decf8e8U, 0xaf305f5fc15f306U,
  0xfc1f0517d606f403U, 0xe706f7060cfa06fbU, 0xff60dfd0d0210f6U, 0xe50ad9f21116010fU,
  0x12f8fdeb0b00e9faU, 0x70e0006f5f5fffdU, 0x1fffd01f90aecffU, 0xfafff40ffa000902U,
  0x108ee06f7f008f7U, 0xe9f205f413f9f1ffU, 0x1b0dfc17fb1feefaU, 0xfc2408f70af70500U,
  0xfd05f5fcf8fd0f12U, 0x211b160c03e00610U, 0x8f2f504f50af0fcU, 0xfecf809fe0e0001U,
  0x4130102ecf603f7U, 0xfdf8f8f419f80df7U, 0x151301020014eef7U, 0x53706f2fbf4fefaU,
  0x18ff0cfdfc0c1a00U, 0x1a0c230402f9040fU, 0x110409f8ff05f6f6U, 0xafcf0f70c05f400U,
  0x11fff008ddfe0cf3U, 0xdfffdfd09fc0bf3U, 0x50209010603f8ffU, 0x911f7f701fdf909U,
  0x1ef70aec0117fffcU, 0xf000a06090901f8U, 0xf22d2e4ca028a811U, 0xc42ee7d34309050fU,
  0x2fee0de9042be4feU, 0xbefe14d927a6b2eeU, 0xef0703232305d3cfU, 0xabf70a9f0ee71bacU,
  0x1c38c800ddd7e803U, 0x110516111de4d09aU, 0xf5111f1ea92115f9U, 0xce16c70453042e01U,
  0x19010d0efde9e90eU, 0xdc001de91999cce6U, 0xf2231f1b16dae3f2U, 0xef0d00c1f1011ac9U,
  0x111bebe3abfbe6ffU, 0xc0d0b1629ebb5cbU, 0xe807241abd44a310U, 0xbf05dbe12c042411U,
  0x20eb25060802ef1cU, 0xcff5fcf325a5d7e5U, 0xfd0ae7042303d5d8U, 0xca150aa50bfcedd7U,
  0xeb13c117cef508eaU, 0xed02370122f2bbcfU, 0xd1031f34a5f5b9e3U, 0xa52da8ef0f13021bU,
  0x22ae39f12c19e81bU, 0xcafe0fe2d188dcd9U, 0xf70d30150dcbafe2U, 0xbc0c1b95050810a6U,
  0x618bdf0accbe608U, 0xf7060b141a17c5dfU, 0xee2a0c398f0b3408U, 0xba23d60d29301a09U,
  0xf9ed1cf808efee18U, 0xf508f2e9e49aefc7U, 0xed312101f6fcc6d8U, 0x2a1bffaeed0213e2U,
  0x72ec7ebabd10414U, 0xf9f71e081c11d6ccU, 0xd8132125cc1b86f1U, 0xdb04ca0b1c2f2217U,
  0xfffd131f43fcf22aU, 0xeef313eaf8a3e4e8U, 0xffff17060cede5dbU, 0xc624119d14fa0fd8U,
  0xd2bc612d8e5e8f4U, 0xe1e7310e24eec2d4U, 0xd140023aeeba1dcU, 0xd837d0e01018e913U,
  0x15a3f202340bcf06U, 0xbbf9f0c21b81b6b9U, 0xeb2c2e0a1cebbbdcU, 0xb415f4a8fff2d794U,
  0x132fb9f0cec9cdf6U, 0xefe1fe141d10cfc4U, 0xf6fd141ba7fc10eaU, 0xd423dbdc19fd0131U,
  0xcbe14f002dee414U, 0xcafd02d00eadd1efU, 0xd43d2a1c1dd2dbdfU, 0xb0ae0b8f3f924c1U,
  0xfe29e2d8b9deeaf0U, 0x7fe04072111beb5U, 0xbe0ff71baf08a708U, 0xd517b4ec1e08f00eU,
  0x1dd06ef32e1f707U, 0xe4e303d100b9c8daU, 0x16251bfc04d5bbdfU, 0xc41cfaa7e8e102bcU,
  0xf42aaf02cad1f8f6U, 0xf2f11e0a2915cdc7U, 0xc10c1c13befbd8ebU, 0xf905d40201fbff24U,
  0xc1d1b12f3dc0fd9U, 0xf7f619de06dfd30bU, 0xfaf6fb110df4eebaU, 0xdfe122f4d3260dcaU,
  0xdadcdfd100f70dddU, 0x14f1e6f9f1d109fbU, 0xad0b090f9fe7d305U, 0xe901d9f1fff4fc2bU,
  0x131ef411eec905dcU, 0xeff1bcb0ec9c20bU, 0xf0f1e8132ff7dac8U, 0xfcf129f2f615ffc4U,
  0xf2cfce15dbfa03e7U, 0x17fde812f8feeaf8U, 0xce04fffcf7f3f803U, 0xf500fb04fdfc0206U,
  0x151e07f9e9f0fd1bU, 0x6fffbd8fe14da0aU, 0xf3ffed150901eaf9U, 0xf7f7050e11f60b0cU,
  0xef05f3170d04f40eU, 0xf8eb08fe0c0b080bU, 0x930f06f492d4e1ddU, 0xf4f2e2ea05e81417U,
  0x5f813180ba700cbU, 0x13df1fd409d79309U, 0xf319e72118f5e5abU, 0xda0112fbf40d16dfU,
  0xefafcfc2d9fb21eaU, 0x1f3df26d09eee0cU, 0xa017f8eabad91b04U, 0xec03f70302f912fdU,
  0x9090b0b09b10201U, 0x27ee34d3ffe8aef1U, 0xf10fef23180cd1cbU, 0x6fb28f90506fe05U,
  0xffefe5101cff06e5U, 0xbf2f816d9efe713U, 0xdb1723e5faeb081dU, 0x5f10f14f40115e3U,
  0xe244803fdf6fb19U, 0x19020fe40535eee7U, 0x504fa09deef0f00U, 0x6e80825fff30407U,
  0x10f160c1a03f506U, 0xf9ea0cfaf61a0e04U, 0xb603eae8b4dede00U, 0xdcf3f9f014fbfa05U,
  0xfce8101116b2ffe3U, 0x2ea1bdf03d78118U, 0x2ee41e02fee7c9U, 0xe80407edddee0102U,
  0x15daece9edf719f5U, 0x2e10136c4b4ed1eU, 0xd80818f0f5e72e13U, 0xf706fa04fdfb04eaU,
  0x1bfd270c09cf0e04U, 0x15010ce4ff0bb6f3U, 0x610fd02fafdf8f3U, 0x18fb1009fbeb141aU,
  0x13f92a1a0ffa00f2U, 0xfff8020fdaf7170cU, 0x10f2af50cfe0515U, 0xaf20a1aeff70eddU,
  0xbf52f04f008fc05U, 0xfc0502fb122ef8f1U, 0x14f90408dbe70d0dU, 0xdf40916fcf9f3feU,
  0x3fe1408fafdf60bU, 0x7030ff6f80a09fbU, 0x1008190f11eceb2cU, 0x17dc1104fe0ce4d1U,
  0x141b343bd9f812d3U, 0xc82a31fefc1510d5U, 0xd14fbecd3cd0720U, 0xe80a04fdc5e51c1cU,
  0xecf706b8141700e1U, 0xcb01f00ce3c32225U, 0xff0231f61918d21fU, 0x9d9faf3fe0fe5e1U,
  0xd7f20921e01827efU, 0xd528270d0b00ffffU, 0x60beb06e7cff60dU, 0xdaf4ff07bfe02315U,
  0xea13f6dc120907f3U, 0xc2f6f7f6eef12b29U, 0xfbf90d06f80af7faU, 0x503ebedfe14dff5U,
  0xf0e2f609f10ffd05U, 0xf1270616f81be002U, 0xeb29f60716d506eeU, 0xfe01fdfff9e50501U,
  0xfe18fbfd0c04001aU, 0xf9f1edf31e130107U, 0x110e29501a17d51dU, 0x2d9b0f0af608f8ffU,
  0x2d4c2032def8f5efU, 0x93102d0906f2dfdaU, 0x31f4cf0118d0e6fbU, 0x94112702d0f70825U,
  0xe2023cc81b0340a0U, 0xfe1be117ceae1d24U, 0x6111e1b191ed04fU, 0x21a8130ef209f7f6U,
